00007a80
bff66c7498bb95da
bfc506de145392c3
bff30f163de49b6a
3ff15230a4743de7
bff49e14785a8fe2
3ff06d3de1bb3a79
3fea192b7ecea02e
3ffbf3d44599e821
3fec58f18746538f
3fceb494e73f675a
3ffaa31906f561f0
bff35a87fed4fc5d
3ffe903900ae5b57
bfe357d133084534
3ff1d57b3b715172
3fd9abb13171b6bc
3ff440e3482bc18d
bfee6d758592a234
bfe505f508b45bb6
3ffcb29ac533b622
bfdd54b7643269ed
3fd084db0661dda7
3fe550a919be6838
bfdc00909ecace86
bffce17a2691a50a
bff121069cffdc67
bffe395313b0a7af
bfe914837a32f1f4
bfd81c643b28d930
bfec2ea739c6ed26
bff07e413db98e19
3fe5dfbbe9f7b593
3ffe054cf5ac97e6
3ff4cfc401d68a0e
bfdc3938fe648026
3fe7b3ada501e822
3fea5434a6bc73e9
bff4384b5a1a40e0
3ff0fc37230bb3e5
3fd06f0433ba5f72
bffbd9d14f953ad3
bff3eb2620355f10
3ffda52d81dcd862
bff48d92db6a32d2
3ff4b26926cb1145
bffce2a11a85d41b
bfece05ee9371486
bffa5a2b03aecd60
3fa9e3d724f96761
bff1c9f392cfac95
bfff00bc49b870f6
bff282a4f92986f7
bfff096b8f5a7abd
3ff6aefe3214c20c
bfcdb172e7a3066c
3fd6ec04a262a1f1
bff8c928e3f79b98
3fd973b7bf4f6396
bffb363cca338155
3ffdc88d65b02bbb
3ffaf9c286e4af20
bff111a904701d5d
3ff6426eddde0e84
3fe544611b4a4809
bfea7d93d4d3779a
3ff6aa1579723389
3ff613c4cc975a9b
3ffb6c05bf5e3de1
bfff939465f34f07
bffadbe5a14d7685
bf558f019170d657
3ff82d5b257a764b
3ffdd74871373218
bffdb9a2ed53665e
bff53a76d747f235
bfe59601319e68e5
3f721d372ac1646e
bff5df9873093ade
3fe2ccd536174048
3ff57ed6eba3c219
bff08a88ce5c383b
3fe9dcc7878b83bd
3feb3c921bdb7e3d
bffa2f4cb166ea2d
3fe34f86ec8a1a8a
3fd51d01f9f81f89
bfff59949001ddcc
bfdaecb3ab02cecd
3ff8869488bab4cf
3fecdcb72a5ca871
3fff88d460b57b66
bffa157a6d9a06c7
3fdf21f58e7503b0
bffad6422db2be11
3fef148a0afbbaa9
bffbf8dd5f468dd1
3fe21e1f1ebc60a6
bfe006b4d1a0a8d0
bfc69c206e081583
3fd735bcda177247
3fdb25aff0ad81c4
3ff9370f33047d11
bfec8d8013d6738b
3ff6aeb01cd866f1
bff1125dd35b17e8
3ffd24addbd40a41
3ff3e57ac1909b6a
bffd54d247d95d1c
bff8f3ed6e61a49d
bff5c1887c713c06
3ff2858edfe17037
3ffa91d567d3cca5
3ffd29a7bca2b466
bfddc9451f4e7469
3ff0e459e4d1abb4
bff81abb047c5eda
3fc569109696eea4
3fc8d0c4971ac9b1
3ffe6bb432291504
3ff5156a1d21e6de
bff2c5a7a9feb8b5
bffc8afdd7aa6316
bfd53c13125a8719
bff71989a6be1991
3ffd159bb3e1f60b
3ff14f55785e1eca
3ff9ba746b1d04c2
bfe2ad1c4e8a5a60
3fe952437697df8a
3fca833653a890e3
3fe40c4d7163325e
bfd138ffaf8cfa39
3ff8a05de7341210
bfe7888ede9bd053
bfea7f4db261968f
3fe77bf12f24f013
bff925a7ea016d8b
bffb44ed21385ae7
bfe1d56e0269c27c
3ff3458ede774d26
bfdbe0a402a695f3
3fd263e7a393e083
bff8eed5fdabaef6
bfe85ce9838c4eb1
3fdde1f305f69b42
bfc72ed79ee8645f
bfe63b07b0e5ddaf
bffdf633c3dbdbff
3fd1de9f8914dfe5
bffe4c7dea8f7ae6
bff1f3df938a5b5b
3fd903800caf5541
bfd77e1a6ad92f97
bfd539a5b8cdc2ec
bfe26cad28393ebc
bfe519fa7b89eb61
bffb4a45d3698bb9
bfd48fb159def174
3fe2f47c83a2c6c1
bfe51eee227a76ce
bff9411cecf03def
bfdb36d4dbd3c4a8
3ff1e14d3f156efb
3feb5932211df8a5
3ffae7c8ae623b41
bff766fb479bdae7
bfe3328a151cef1b
bff9634f10988392
bff47253d04574fd
bfd97e04b763d9e4
bffd1c65dac899fb
bff23f65c4779aa0
bfc2c7484450fc70
3fa37bb2ca46e488
bfb51a3eb41df7bc
bff8d12e9bc3eda2
3ffc3d1ce83c116d
bff85a3968daa3d2
bfe93c0f827c5808
3fee1c56b878a391
bfd54afd915b3a7a
bff785083ad5bc43
bfb8cbffdf899d29
bff31b37cd855e6c
3feeeab8bb994b9e
3ff271475d9357d4
bfddad6caa99cb72
3ffe68699d134dc8
bff5a596faee2283
bfe95de4146d5cc6
3fc64565c5784adf
bfde9cb1a9b34258
3fd1d306a581f29e
3fcf56f0593cb1ba
3fdad0b28a170564
bfdb1f3c4695f022
3ff379519900b092
3faeb02f837e276c
bff3db8275add71a
3fe5e9e65866ae9f
bfe9d64df6a05720
3fe5cc8d8a3882d4
bff1c823a7ef0a20
3fea8a75766f7824
bff79133bf855a89
bff8390696fff41f
3fed7d1d3732dd2f
bff562b9d9859ef0
bff4a8f8bf778a44
bfe534eba4fcc027
3feba7d4643ba3ad
3fff947bce949813
bff4be8a95f724e8
bfce176c48553dae
bfee20757f4aa808
bfedb5ce66826f54
bffcb8720f819c31
bfbe91d37c51cba9
3fe2c2bad6ef28c9
bfd4e8e2f8fb5ed5
bfd654f324eb484e
3ff80fb8f212c4e0
bff26f9884d6c1d2
bff4ce5bca408466
bff89d03c6de2c00
bff0bd7bd930253f
bf905d3928abaa33
3ff7498dbe51719a
3fe0738204440753
bfd7f65c4ac23c0e
bfd09f017333c20b
bfeec552f63fefaa
3fe16b96330704b2
bfefd133464ce847
3fa8366697c3fc5b
bffd9d42a7ff7967
bfd8513b8919a541
bffda25eb9fe395f
bfff552f030310da
bff2801f7dc381a8
bffac7c5f24da130
3ff6ada482e1d1d9
bfd0edf551f0c828
3fe422573ac1e5e9
3fc14dc0dc6eda89
3ff16bbeb14c985d
bfec3d3c65c76db0
bfe29d85ca96d9c9
3ff9e583581fc554
bff915d177f9ed53
3faf4d133f805c04
3fa0b39eeb67b651
3ff24099e0c9490f
bff69a3436fdef13
bfe613846f47ef1f
bffb27c0c007bc93
3ff7c80928dbf338
3f8b034d5027b2fb
3fd00a7ac581a60d
bfdfdc799060c810
3fff80521af950e0
bfda0f4eb0636afc
bff8a2726ad680a6
3ff33d5c2c70e1ef
bfd2a21bc3db1649
bffa8386c3ebfea8
3fffbcb6624d427c
3fe170c94c5f0b94
bffe2b689819aa84
3fcb5d2efe8c438b
bfde1d45c355e231
3fffb7a69d06dea9
3ff7fd44e44eb0cb
bffec4f3e5464c66
bf6ffe1e496e91d1
3fdad198ffbf29e9
bfda10f3891fb73d
bffa47291de800f5
bff8a20d4010dd07
3fed798fd41c0327
3ff81954f34491e3
3ff82b6ea201f4c5
3ff5b078c9ccd4d7
bfed22aa0e17e71b
3ffafacc7525a87e
3ffa285422458336
3fc8ddba8057dd20
bf63ed5adf27f2b0
3fd0d8aa3a00fa41
3ff0ee22e90bd2c9
3ff79337a0ac5bbd
bfed0568ddce2470
3ff37ca208e51f80
bffeb69b3bb55f85
bfef3ac8422f9188
3ffc0e439e3d28aa
bfffb9c5e21b0fd9
bffbf5e332e5ed9d
3ff53ff7edc857be
bff0b9fac9bb6f1d
bfe1da72258517da
bfedd0402a86dcfd
3fbfe2fde492432e
3ffab8d16dbeced0
3febd5bef9771511
3fe7ca86160e16ab
3fd7562d054e0c55
3fd4131679373e3c
3ff059ae7dda3525
bff698f65fc7e5ac
3fefc3c735ad4466
bff099b3832825ad
3ff5a4044660f807
3fd3eb53b88aa840
3fd7b84e578bb329
bfecb365ecfc069a
3fd5d2e541347608
3fe29572489fcb7a
3ff5e0663208a2e1
3ff275093dbf11dc
bffe544836542e2f
3fc603257320c697
3fe9484ff30e9e09
bfe7b7be0d83d36c
bf87dc2943483be2
3fdaca99cc6ec2c0
bfd14e1288926e99
3ff04e40ab2a5085
bff98f5910b2fd2a
3fd3720e8a5b8c1f
bff3cf3041997a0f
bff042fc4fe2080d
bffe1d7fbf704f3f
bff5377212b8307a
bff98149fd7c7962
3fc58266cfd6587f
bfa8699d7492ba11
bffbe9f3423adcb0
bfe2351e8defcdd9
3fba22f81d685988
3fff3bab3b988c4d
bff03f397071e86e
bff901a19b4c031c
bffcfb11e2434853
bffe70c889aa1902
3fd4ca0ee047c52c
bff59e21064a3482
bff80a2cb2d2dc8d
3fecab10359fc617
bff2132f8e4976f5
3fb5b6d4b41d82da
3ff2ab83c698d7b5
bff87802c1c73106
3ffa3827194c60e7
bfbf5dbaa5981c67
bfd30254276a200d
3ff6589f36e451b5
bfea7ad5b1781a19
bff569d5b6724e49
bfe6273a2e9643df
3ff9716ae175546a
bff672a48fbaacad
3ff241d6b01d88ea
3ff3cf99ad072522
3fcc6fda0f300c29
bff10a8c2cfdf621
bffa3af6f3ef90b5
bfe3afd2f5368545
bfd0797bfecb99ed
3fff6a22481261ac
3ffb90de34baf8df
3febfc091fc588ee
3ffc7410b8290276
3fef912ef906f7bc
bfcb985d581c8a3f
bfee972e3d43220c
3ff5f6dd9b700f2d
3ff361aa44ca1df7
bff2b07c3d20c779
3ff7ee9ec948a61c
3fe460065606cf73
3fe36d33262034ae
bff903b6712a32f0
bfcc11c1907d6051
3ff5fe7d1c2da37c
3ff9d6739368d2ce
bff0fb173a0cd6b2
bfdee6745ab56fd5
3ff306cafd99a148
bfd14bc7534b8557
3fbf1a1e80510e44
3fe150ba8ae9939e
3fe105f127c72b4f
bffe329ba63b3411
3ff0843a8256dcec
bff60d2783ec2bba
3ffc162d97a0d0de
bffd8409f8150a41
3fe5e12a3d4348cc
3fc43c0d93d5797d
3fcd51cdaa6191dc
bfe886d478e7d3b3
3ff20de829f36338
bff5f8e17e905c8b
bfb9a863b5c16b37
bffb7b5ed6497866
3fd771baa81216b3
3ffdef4f9f786fce
3ffe1a6252bdb401
bffcd5c28d41abf7
3fe8acd9d382eb7e
3ff03d13f0def170
3ffd7d385c4e14d3
3feb09230badc6c3
3ff3427721f1e12a
3ff52a00994ba5c3
3fe02375e6b72093
bfe2e699daf3d3fa
3fdf8ca9a0e2a449
bff15610432af4dd
bfc9c81272c8f8e5
3fb90a5467eb30fa
bfe263e67093321c
3fe33266831cb26c
bfdba018f3ccef58
bfe0d367e1c7adb0
3fea0dd24579c10e
3fc2dc9a04c9dc24
3ffa0cf0e0602c4a
bff211d7dfa4d7a5
3fbdeaa04d6d21f1
3ff087967ee36963
3ff7f8a1380329c0
bffefe00bf09185f
3fc83e34c4e4c419
bfe6d3a07be0b574
bfe107242bc7d007
3fb94e9a8b03c3a6
3ffcf7d883c050bc
bfeaa13fb3531ff7
bff55dcf144da82b
3ffad49e781ace07
bfbde2547e6aff3d
bfcdde05feee9844
bfd21a6adab0f4e1
bfdd0d2488a9d8ac
3ff5ee96cda2765e
bfd578c29ab97c6f
bfffd0cef7a285d7
3ff41958ff50c2a1
bfe71ea1d6d6ab4e
3ff2b5774ba272f2
3fff167787577863
bfe211e411a8d563
3ff454c2a7937aa5
3ff5c4570486eb6c
bff463e8b0b876d4
bff9a0fc633f6e92
3ff5d0edd26e3147
3fda45892a0675af
bffd652b67c075d1
bffae4e69bec4ac4
bfda81a9e1902136
bff3bd817f905b18
3fe06efc733052f6
3fe1739c69b1141c
3ffcedd84da59976
3fdfd09a3da1c769
3fec6cf04dc39f96
3fdca047a6ac8e78
bfe7b60e10fca671
bff85431bcd9d8d0
3ffdaf2a0f249b2b
3fc18135f4820f8e
bfe71518de30b93c
bff99d07dc5a1e39
3ff370a33e226602
bffd71d1b5eebf6b
3fe61bb6149add92
bffcdc25fa0becc0
bfff7aa48d3443b9
bfe84dab6e74c455
3fda783cf9fc8ea8
bff758ad7b9983c5
3fe1c28786c5acaf
3fcdfdfdcade5f80
3ff59f825052a8fa
3fd4fe21b34c0539
3fb5a75899f5dac0
bfee13814359aa2c
bffd00c549572d37
bff82fb68438c010
bff0311968f7d9af
bff7d9eccc5875bd
3ffe4d3b093df9df
3ff1c54a0fad6037
3fe31f3609e3a4df
bfffabf310db09bf
bffcd2778f5d2942
bff0e80ce197b38f
bffb7f1764304ee7
bff01617f4bd4d57
bfff34ec37cde765
bfbf3d8dbf72f2b0
bfec06199006759b
bff73e00163dd81f
bff62a02299f59a2
3ffd88d3f35995f9
bffeeb91808dc632
bfee0b89b4522779
bfe1158d1d46e25b
3ffe91c916a88a31
bfecb81752332d44
3fcbbc7923aa7240
3ffaab903163a7fe
3fff768f23bd9815
3fc369ec1bf47293
bfe9fa1b7de44f36
3ffa6f9a60fb973f
bfff55e011055046
bfe7472561b09ebd
3ff9061cb184c3e6
3fdfd1a0d3573205
bfe1e614354e9b68
3ff2cddc876415a6
3ff7924766a17bc3
3fe41406758922fb
3ff99225e72de2a4
3fec256433f6741d
bfcdc4e1c0ba1165
bff658e973019627
3ffcf44eabcb35be
3ffa32660b7fff4e
bfd8e8fa10230392
bff2350d8b9c9f8e
3ffdb90464ae3aa4
3fc6644e3e8f56f6
3ff056696d4f3419
bffb24b6d75e29ae
3fe426af9e9ff0c9
3ff67e2762c09a7a
3ff3fea0a7efac81
3ffcfbcfdea0ca4b
3fe3ff099afcbb61
3ffcbcabeb29dab9
bff107683b387b03
3ff2fa42331021fc
bfea6391c543e293
bfe723f52cee9b98
3ff674ed6aaad6ad
bff1540232d9121e
3fe11baccb4c6267
3fe2b2ac24c8ea27
3fe4fba376635407
bff9bb9c8062cd9f
3fcd01d4be3d8d96
3ff6f61d25e6e8b6
3ffe44b2f3dc833c
bff1c1ccbd1a3763
3ffe36d6e858d6db
bfeb6487450013db
3fe5784c671b84a2
bffbc8d95f004945
3fd7175367edf211
bffa787904f8130b
3ff347650f19c460
bfcfe1d7bd4901f3
3fa518bde50c844f
bff7e077a204bed8
bf9922e96fa8d9f6
3ffb018bddc5466e
bffb27ec3917da4a
bfe7213a6e996257
3ff42d9a3a53d704
3fe9601b5a7d200b
3fdce079f0c23791
bffe0cb7aa6c76bc
3fe1fd41b7c17c24
3fd2a3df52d701bb
3fd4aa00996ab5e0
bff434e9d24fef16
3febc19512ab517c
bffec5616877786b
3ff112a52effa422
bff8ae82e56a0211
bffa7dd4dda50cae
3fd468a19624956b
bffee0f18ff4ac9e
bfee3117c6b62675
bfe9b358f23549d0
3fdeb14bfb0b2ce6
3fc5b8518eaaa74c
bff0f8f0dddbd0a2
bfe044c262eb332c
3fe9c7854883dbac
bffbcab8c4cc14c0
3fc52962323e8da3
bffb59d45a5725ff
3fd7c4b5b718cbbf
3ff7f51afa00ee8e
bfe1f824b51be35c
3ffcfe1547aaf7fe
bf55f8a10701f33e
3ff82b5bac882af1
3fe843ad3473b296
3ffe320129057dff
3fea24e12910bc63
bfc16ff11cce7c33
3ff75ee46ab8a7ad
bff297f447c368eb
3fdf946f9fed547f
bfef903b44f669ab
bfc284b02d4c1164
3fe4cc966642e3ac
bfe9a44e6bb7a19a
3fe1c0a0bc3202a4
3fefd53f0487b2f0
bfdefc7b1da425a8
bfe5bd329521c774
bffce005fc12fcc5
3fd6675f4bdea031
bfffd6fe53e47b83
3fef0fc0b9eceaf6
bfcebd76f086d6c8
bfc03501d8289c51
bfe47953d6290178
3ff7a67d77177e9f
3ffacd26980b8d4d
3ff90b0358e83a88
3ff6eaf89e1e43bf
bffe08f524e34d9f
3fef617511088f00
3fe3fbf9cb2af6ff
3fcdb67a4afd06a3
3ffa96c3686b9661
bfd7636981372869
bfcad0a640c33f4d
3ffd6640e4086c73
bfe9ee3d29036237
bff7f957d26a716d
3fe36cad77272515
3ff504a5da0f0fa8
3feb5ced20cc8e4e
3ff3186f03049cbb
bffbc492e89f2258
bffca02d404eca2b
bff68c860c749d09
bfdaaa5fdd0f72d8
bff70a3ed5f7c109
3ffa04eae3719df3
bff7fd7fed3d2c3a
3fe7bd7cf3e5c4ba
bfea26515021ff9d
bff6555647e3566d
bff0223126737830
bff26981475bdd50
3ffcbd8593750466
bffa9ef240824153
bff30f02f69c8dee
3ff0da7207ca2cfc
bfc855c9e372e5be
bff3067cdfe0d4d5
3fdf4bdfa2b4f42e
3ffb3e9ef7bead4f
bffaa75f23f00956
bfe5d96b7e3f46e4
bffc57438d3d0d93
3fe6002937d32ba9
bffc385eb296eb5e
3fc859191e10be11
3fe1cccf1b90743c
bff3b0bfc3dff258
bfc4f842327df1f2
3ffcec513d0ef632
3ff4b0312016e625
3fea0c7874659a02
bff6bd12090a7ea5
3ff815d710a01f8c
3ff0b375138a2e56
bfe749ae3f075eb8
bfdb536c0a44a1ef
bffa8917e820b827
bfe8a5af3bbf73e9
3ff83f68a9902ce4
3fce1f57cc66adaf
3ff91206b984cb5f
3ff1cbecc72f3936
bfedf4ca30da0a82
3ff0f314dbd59390
3fe797d6f1472d7d
3fff8aa3c814b6c9
bff63315e1c0ed62
3fe5bed687e6ff7f
3ff01b1d8070efa7
bfe1294ccbb3eeef
3ff554fc5c3349cc
3fba592384617ff1
bfe1d50a54c6e916
3feb08d3d224590a
bfe6c55561739de1
3fe317b64097e9a0
bfcea59ad33ebcf7
3fff9a7689b4f0a5
bffbee7a13afa7a1
3ff195dde8afee19
3fe99d945051c08c
3ff1be698779662d
bff65cd1113f2f8a
3ff7aa9234a46056
3fe6ae2cab0d48f5
bfd766702b04f798
bfea3c02895550a2
3fc35cf2ed2ad4fe
bff5c0b25e34edaa
bfdc00f20dadac7e
3ffcb1cfd72ea9a0
3ff709bcd5fd53e9
3ff71362056bd10d
bf99c2e74bfef0b1
3fb44bcc6b33d4e7
3fdb851728c4c685
3fcf0f2faa1b1720
3fffc395c50a3450
bfffa236d409f55f
3fe2512b99d12a88
3fe73c1eb2455b90
3fb583728726f7ef
bfdbee2d0ea7f450
bfdfbcab99dde694
bff69de030eea937
3fefff8ddafd0f0c
bfe968363443a5d9
bfdc03fd8e37da62
bffbd3945a216fa1
3ffc0d8522dc5635
bfe0f5b7066655ac
bffcffacf370af94
3ffbe461135dbf70
bfd5112149a48c2e
3fe87549994651fc
bfd68a3d79c57b5c
3fdd7d3c5d109b8c
bfec6f0829fb72ee
3ff18f9aefade911
bffb21bb9fd5384e
3fdaa30bf318ace8
bfe5d7f0dd3e4a70
3fe285454e9a9bfb
bffecbd8a37f524b
3ff2c203783973fc
3ffc8362520a127f
3ff88e120ae46ab8
3fdbc32e6bd5c353
bfdcf56248f04eed
3ff66907aff648bc
bff7cd96e4f9d51f
bffb6050f3c924fb
bfeabf77e840d446
bffd70025cc01a5d
3ff4678055bcc691
bff1c6bc6c62075c
bff1e8db2073ee66
bfdc3510cd2f2b9b
bff751cba453743c
bffa58024733ae5b
bfec5b39edc099a5
3fe34f8443edbf82
bfeb059280eadd4e
bff6cbac6a4e47c3
bfec8dabec0a09a0
3fc8192cae488867
3ff936074f4d7a29
bfdee5bb86d0e598
3fe8b2fc86b4dc04
3fddd1815c9177a1
bff590118e2e98bc
bfeb8b74b7c8a89b
3ffb13bb9556f585
3fe8db2b329dec54
bfc6ad4e930ca1a6
3ffe52f78e40b547
bff63117ff5b965a
3fe7605a1cdd027d
bff900e04e663c03
3ff728e5b0abe2e5
3fe9d1110bc4c84c
bfe01d6f713270fd
3ff966916b701896
3fc7d7aa2cc84807
bff1f4523a0d6a09
bff0068df31edfa3
bfb43c4f12679ec0
bfec409fa619fa0d
bfe14696baf87480
3ff955e0d0f21516
bffacf151c00a60f
3ffea3197854f426
bff4a9ce183de0d7
3fc429401abaa0c4
bffc627cfa34de7d
bfff138a09387382
3fe38661c64dd4b6
3fe211ea2f9a4773
3fe15e6a7f7ee903
bff2446dfa9482c8
bfe8faae4a5d9bc0
3ffab805481c5608
bfffc69b9c977a25
3fe42a3e6ae8406c
3ff9251d762d32e2
3ff02e9fcb648b11
3feab470ddca0a5a
3ffee5a2e1ba365f
3fec7b6d793e9efc
bff50335bcb3eac7
3ffc5f3b2e884de6
3fab6158bc372cb9
bff5d14c0932f0d1
3ff5ffd243dd3a14
3ffe0ed1abe80f1c
3fd5ab00ecc0db64
3ffe5379e08ef30c
3fe8f76bebf7a609
bfd99ab2ff246227
bffb5e217d900e93
bffd9f5fe079beed
3fee1501eec8dec7
3fc8e4b171fb58fc
bfecd79f8982f553
bfd9f379ec8459db
bfde4eef6f8730a0
bfeafa64e40ef012
bff894c03ed964d3
3fea2a9019ec1a59
3f864b5da4439264
bfcc027887b3fb4d
bffaa07646351477
3ff7a50c026d1667
bfd8a67b29db6184
bfffdbd1c47f3030
bff700a652b805d3
bff8b6c7a0335329
bff1e4d588545000
3ff18a4cab11cd34
bfc257a5bbd22276
bfe23ac72dfd0717
3fe6f019fc0b8d06
bfe4ca517d98fcc7
bfd69d6845b4bc94
bff095b7c634640d
3ff1792905f4eaf6
bff08c8539f5219b
3fef9440dd528af3
3ffa71266eb86bea
bfbd1420edc92842
bfdb6c5e0aca1811
bfed064c2407ca73
bfd73ea339a35f18
3fe66709b0b7e54f
3fe1238e2ca3ff41
3ff60d7709be4ae4
3fea23633ef11b18
bff69855247dce03
3ff5772a81d61008
bfd73228f7c8cb6e
bfdef1f443538216
3fd3aef7a6a31d89
bff91efd56925d6f
bfe11a3c8563dbe0
bffd77fb43731bd9
3fe21dc910d413cf
3ffcc5b0688d238b
bfe335ada034f78a
3ff84bebe56b0764
3fd6354b2cca0b86
bff2236f99fed7c9
bfc21cc13c31d00c
bfeccf630ff1912e
bfe6fbaec4d79d21
bff2176dfcf558ae
3ff6560522c1c89b
bff4fa661f4a7b03
3ff039dd6f6647de
3fd5ef1351f626f1
3fb85a834627a4a7
bfeac14c6bdeebea
bff35eb69e2423ad
bfe346cf87922feb
bfefd82b7b6b3f10
3ffafefe48d5712e
bffa43d058b6225d
3ff0411bfda73feb
bffa746a5876d343
3fef98b7ed0be4c9
3fe21031e9ce52d2
bfba2e8399b7daf6
bfe0afce771afce4
bff978414a115f67
3fee604beceac37c
bfe08dfd7564827b
3feaf88ad09d8b6f
3fd221bd34f3d984
3ff511df1785ff1c
bfe928880e0c58b3
3fe76edd10ccc15d
bff3065ea6ae11cd
bffa84cb5c09a2a6
3ffdb53d28170f93
3fe6586d90344fa9
3ffac5cefeda0f8e
3ff24eafe7042435
bfb2747b230b778a
bfe145f594ce5303
3ff61d05929f0de2
3ff167422fd05a0e
bff2e4fcc8baa470
bfdeaf935dab884a
3ffd4fe112bbce0b
bfec9daa1738079f
bfeeab42f00699bb
3ff5637b6d91b234
3fe5c4bd53ccc90a
bff6fc4b7ecee81d
bffc4e36639e4a7f
bff2e7a0d8afbbee
3fc657b445148722
bfdbb0f98f83241a
3ffe882b2100c609
3fd1d1021b1ede54
3fbe7c2f0a409c49
3ff8c9bf9cb44c61
3ffcd4e0db308cd1
3ffad6feb31cad4f
3ff50ab44bdb9159
3ff27bc092f60cfe
bff2c811efd0039e
3fef4e47edac3e32
3ff9cb1bc4da7363
bffc2c84bb575015
3fbf68231898674a
3ffdcc7fa3c30f0b
bff72044a0c980ea
bffb2e09e9ddc9c7
bffc671045dc1791
bff3eb5b1f8eb232
3fe076c57c474046
3ff2b9c7fcd41507
3fec0dcfdb2692b6
bffc7cec7791389c
3feac257348d22be
bff94752fa46044a
bffdc00c306abc25
bff030cec5a49250
3ff8b5c1dcda4e3b
3ff7b7ba9d26fc3b
3fe343d521061db4
bfdb8e098ba2135c
3ffb057be6cc0b39
3ffd6ddd124ecb71
bfd99ec9129a3ff6
3fe6e1c1ff2e81b5
3fefc69ef44af573
bff9d225f002009f
3ff8fb72fe0bec18
3fe15f6f6a5faa42
bfec93fa4fc68d6b
bfd426b9706b1f37
bffecc272bc4ed45
bff0c82e769007f1
bfef5486c7cb827a
bffdb7b817cd9e95
3fd6ac307a186eae
3ff811976911f5c9
bff59f70cdc735f4
3ff9689615a48b8c
bff917d540e95b07
3fe33634a3e10806
bfe9feb183cd05f2
bfffff1b3b9e8722
bfe45572bc3c5944
3ff5690e13ed5895
3ff5009dce99e249
bfe334765d52fe5c
3ff438afd8efd198
3fb7a6ef981293bc
3fceee84e7d09f54
3ffab3b5944115c5
bff83c27e81ba5d7
bfed904d05efab4c
3fd97f1bc2c494fb
bfffa9fd91a13a96
bffbbf3bc0ccdd33
3fe1198650fc84fc
bff873018bbfc200
bff8d46ab3bc94df
3fd48cb0495b66b3
3fd67096c507dba9
bffee64d123e8069
3ff2da8e0f4e1317
bfe491dfaad27438
3ff70cd25a4ad39e
bfc2da89c5967b75
3fdff949e9da1d2a
bfeb335b6ea0cfbe
3fff5d1d521a9686
3fda469b25dbf99c
3ff0fc9b95afc9dc
3ff83def1f3b6f91
3ffe26ccf22a59f4
3ffb0f263acae8d4
3ffb6999e20f0759
3ff0369578300301
3ffd54cd399643d3
3fc3da54d58604da
bff91ad78cf28dd5
3ff0287efe9eeeba
bfeea554c024af0b
3ffc1735ae967c9c
bfea4a62d1554497
bfde17557b157312
3fe4dda634185837
bfe2b68b85ab4683
bff56871a3587213
3fd7b3c37cadf00a
3fe993d332fd317e
bfff3c10beb8d298
3fe1399d8b0e0d78
bfe7fbaaff056b78
bfe718d0e5e7425f
3ffc08fc72c98a66
3fe8d5241db38c3e
bff15ef522456d00
3ff937dba0af4997
3fdb36f9c04ac7af
3ff4b168c7a51882
3fdbe7863aaeced5
bff5ba0b8bb5598d
bf9b5ce5baf78f9e
3ff6f54e52a033dd
bfd750b609155c50
bffae58e26c9919b
3ffa065e91eeee65
3ff128f6e4b91e50
bfc288396179fbca
bfbfa44ba75b2f2a
3fdfe0ca9859d2a5
3fe0cd181245ddec
bfd3d7327889ba59
bfdd2ce3393bd1c1
3ffa3acdef2062b6
bff8f33b9e0caf4c
bff9a4bdf89e0326
bfe6bac19c4eaf79
3ff075eaae2f4bb3
3ff40b56576ec178
bfe92aa467d58c07
3fe60f021d2f94e1
bfd1d337b85e1389
bfeef616c2300272
bfc184ca4678b4d4
bfe06e8e1c3609d5
3fe7282f87862118
bffff331af7f2d4e
bfcf6ef97662acfd
bfeff7da9bf70965
bfef7cd7d70957f2
3fe211de6d60c8ed
bfd406be955d232b
bfe6bcb32f53eab1
bffcce15bd1b5676
bfd013e17eb9ee0f
3ffc0cbf2604f65d
bfef57c42ee5b783
3ffbd21704dff8b5
3ffa74e7d94a29aa
3ffe3d72af50f6c8
bffe80b619d66d84
3fe41b3f3e6bc0d0
3fd35258ca9c790a
bfd22750dc89879c
bfe218ae42cb44cc
bfd81ae3c74f8a5e
bfa7952f57305dfa
3ffe0352afea18bf
3ff3283d8e2a58cd
3ff287d0f0576d1a
3ff857dfa0b3c456
bfd3bd377d86a5b4
3ffeda97c05129b7
3fe4ef89c29d70a6
3fff8056faf6eea8
3fe2048b5956f65b
bfef3a35760358cd
3ff76db00ebc96e6
3ffed98cae78318f
bfe257aff428c92a
3fe4b6c7fbbd40b3
bff837ade5742d2c
bfd9482c23d5c5ce
bff9008ff72e081d
bfeb11ea5fb3a6dc
bffc3070d60a77d8
3fd4bbab432765ee
bff80eebcb7ecf9c
bfda3e39ad89360f
bff131d6e60ea033
bfde65ea34738020
3fff2353f8762745
3ff5137b7088c97d
bffd9aeee129f343
bfa94a1c5010163f
3ff3d935ad860c20
3feb723b8243243c
3ff853693c558c41
3ffdd2e0345ef17b
bfed669514e50e8f
bfff7258ce02e63a
bfef5fb74ce375f5
bff3f529ac69d681
3ff17c6aba8e4a46
3fd34ffc7608f048
bfff3e9a4de6baa3
bff0bf16b1153ee8
bff7593adee5194e
bfe90abd921a7eb3
bff7ab61df03c406
3fe227ebdabd4888
3fefd5bd5dea6ecd
bfe28b8690183ce5
bff54f1611e16585
3ffc7bc1a990dcc0
3fecbce8697cb25b
3fe71de36682e808
3ff6c712b588d401
bff5d22ed573ebd5
bffc186c21de3f17
3fe5d95b67f55fcf
bfe3cf1a0195b034
3ff65cb7c131909b
bff71d4531df7f79
bfedef7bc617839d
bfeae6477ed577c0
3ffbdc2cadee4a77
3f7d9cc7a3e0dc4e
bffdd930d975fa35
bfe040d9d4f48908
bffc6b597609951a
bfc16b4ec249c852
bffbd02805f24e46
3fec44b4fa5e0598
bfcdeb736fa0dd42
3ff6792a421b1616
3fd4e9fa048d798b
3ff9decaaf0ed009
bff1a018468a8fb8
3fa0476a575a2594
3fdd5d519c0c3b21
3fffbb24708b6be6
bff31c371a9b2f34
3fe970b7fb6d52c8
bfbb8cbda3fe6432
bff87f558e136dc2
3fecb8a466c36ff2
bfdaf73b55899225
3fc565b019fc2d6f
bffdd9771d532bc2
3fd9145a238a1d47
3fea8349114c47d1
bfebb183e2f22675
3fff368bcc8869cd
3ff7116d509b2fcf
bff38188b2d1902a
3ffee74aa68d5ac5
3fe1503b840756d4
3fbad3567cf7297e
3fe292ba811e4834
3feb0cd161b6d23f
3fcb5acac4f855a9
3fc3aea30c17f32b
bfc076f3218b5ee6
bfe9845d07d7b391
bfc5d8b1b83ca511
3ff7900d748a9a0d
3fd1d930d001a7ad
3ffdb7f2062b7b66
bfc9972abe7630cb
3ffb0cc4cd6eb9c9
bfcfc0b10a853b01
3ffaaa262ec9ce6b
3ffee8f757d3f2dc
3fec6923dd813dcb
3ffd11d00c08f475
bfc1fb0df0f766e7
3fe7a6f2ff06dfab
bfc7a3a48eebc756
3ff03a52a4a35358
bfd09351302e549b
3ff775ab0726b45c
bfe2c2f2d7ff6499
3fc56f01787e0eda
3fe903f976bf4f61
3fb91ca0617af697
3ffcff86e9fcefef
bff8972d543a929d
3ffa7cbd157e0131
bff4b9de5c458ed8
bfe319809cac42dc
bfe046ed7586bec8
bfe56dc1f7127afa
3ffa1537c59e9d86
bfcbb54a7419f045
bfdb181b168f958c
bf7b057690e7e4ee
bfe0f94ed5ed82c9
3fbae41abbd2ac11
bfd447c958df9c97
bff5d2a4d597dffd
bfeedddc2a506026
3fba19c02c48cb35
3fe00ef2344c752c
bfff46c98e95c328
bff3c177cba48f16
3ff9f34dc4e241b2
bffb3b8b6abfc068
3fdb406ce2c89305
bfde95318fcbf432
bff32c6c2dd63ad9
bff91e95192aff42
3fec0d4f7f4ac350
bfefc337b7f670c1
3fc593d46f62edea
3fac4ea01c8de640
3ff838e0f0cb9b5d
bfe6c39f18e6aa12
3ffad930833c6afa
bffe50e1f2d78a69
3fee870b7491cec7
bffb0abd19f69ccc
bfed29e912023fba
bffdea6d52682734
bfe65e68af8004ca
bffda31b8fb2c207
3ffc9aa6b17bebec
3ffe496ae081daf3
bff222a3d03035bf
3fb53ad482c54973
3fed222264f6efcc
bfe0cea14967bc94
bfd3269eb48a23e1
3fe2617e01445dd2
3fca7df33b7c1ca9
3ffaa86f079802a7
3ff65eb996280561
3fea0b3b849ab901
bffaeb88b15979cc
3fe6d3cc9cff526f
3fda7bbb9052d697
bfe7e6e027c91052
bfa26981d93ea98b
3fefcecba600bc1d
3fee979efdb49f67
bfb8184e9fc95ee1
bff3770bb44bfa38
3fe565ba0a326587
bfd8a934ce1b8f66
3fe9188550b875dc
bffde426ad6e28c4
bfee5ee7729807a3
3ff7476953aa5d45
bfd3d7f6c0f1272b
bff808b94e641f6b
3ff3ab969ae1952c
3ffbccccfbb4c88f
3fe6aa5812ebf405
3fdc31062fd5069d
3fe20d798ae34e03
3ff5119228719771
bff2816c38021cfd
3fff95953a8373f0
bffe7a44438d3099
bff4d5dec6e6149f
bff086e871487ccc
3ffde43cb9ac0f8c
bff4fd65acdcd5e5
3ff7c719cd7bd305
bfaaaef1b3cf4749
3ff696486f6c2651
bfdca56948253711
bfeb87008ab92c1f
3fdca7ad72fbba59
bfd45ba53b53cc23
bfdc0011dd27b65d
bffac6311fa00982
3fafacd5de60cc28
bfe462bf03fe25b2
bfcbcd08f94df970
bfe18428298de1fd
3ffcec675f8a22f2
bff20ef1384484ab
3ff50159257ba054
3ff0b92641184cd4
3faf0b82deb87aaa
bfc8f75843733023
bffbbcdf3b187dd2
bfeb71c275739d7f
bfee55d2bc88033a
bfc358e770a0ed3b
3ffcac5f9143d8f8
3ffbe2ed37b38a8c
bfe8480f574a3883
3fd9acc0fc873a88
bff996e9d87ad08c
3ffc341dcf297829
3fbfad4385a1eb9c
bff38651750d7715
bfebe3bd4b8f7c74
3fead46e7d7aee68
3ffc8612c8202223
bfeab3bc822ec0e6
bff0a2180bfecb20
bff401ccf2c8a178
bfef68addc4e8e94
bfa1003119716a0d
3ff408d0798e352b
bffe9f4d87fa06a0
bfe385ccee38b7aa
bfc5f86b84ba1398
3febb0a3a12a8df9
3fe0ab8b93090831
bfc21ba6046af53a
3fd3e21c5dc6ebc3
3fc1fadcdd6fda3c
3fb3d809f5220bc4
bfed5d0f4d8ec15b
bffd340b047c42ac
bff5babb717d33f5
bfe502bd2ac91d03
3ff50d51d9c9915c
3ffdab40fefa6266
3ff3be7397600522
bfedbaa47baa052c
3ffc15ea95bd347d
3fd3fbd7f30ed460
bffb493fc6146a45
3fd9145d37f384c8
bffe3ada63c0938f
3ff1b51847e5d7f2
3ff54e390138353e
bfc4c1cecc412f70
3fabb31d8912f35d
bfe820a7a1473a08
3fff37ee62c24ffc
3fe1b109e89f3d0d
3fea5842be6e629d
3ffb8ac0906f7733
3fd52adc684b23b3
3ff82f0993734497
3ff65a24fbf47be4
bfa23dec0558d2f2
bff18aa5f8426f0f
3ff847094c7b5d87
bffffa4505e2231f
bff78aa027b2b5c1
bfecd403afa4e049
3fdbae288675f8cb
bfd85cbf7b3a3e94
3ffc5082c98fe93a
bfb48b9201b3431e
bff30f636f948f9e
3fe0523da92613b6
bfdf749f09895884
3ffe5cccae2d13dd
3ff9ba5895bdd759
3ff835462752d590
3fe0c8589092b102
3fad8dd169f5973d
3ffe85d560f7003e
3fff8f2b6c17751b
3ff60e005a2cc125
3fdc7942624e7528
bff4b54995213b95
3ffcb887a3e731f8
3fe53a93ca351c02
bff2da34d954f516
3fdbb834094b1842
3fe0cc17d498d6ea
bff146144c46a45e
3fd42e42434a2654
bfcc114e2b3d8d33
bffdff219bfab979
3fe8b461d9489c31
3feb7a44b4089595
bfc8b8c0e27cb2d6
3fffdceb3be894f0
bffb529304e42327
3ff271d642add410
3fe359e0a833fe78
bff444444c01c8d3
3fef1f8e41644881
3ff0e3ec7f7e93c3
bff2e150bd34dc15
bfee4a459c6b15a7
bff556dd35d9765b
bffbd7e36a3318a3
3fd06c9c289b420d
3fc095c4d484bc7b
bfd4a9f97e0829e3
3fd87cd605528230
3ff960065f0be549
3fe3ed99230f71d8
bffa1c7a93233d61
3fb2f2a1ec9929fa
bfd810b283ae1d79
3ff2703ffca3a3f8
bfeb76b851fffed4
bffbf2ad9715af32
bfd03274ce1be92f
bff0567d57247cbb
3fe52875399bf6ff
3fd2fa5904c2ed27
bffa5d0198af6522
bff22e7b2496f46d
bfd50312a7252893
3fff4879d572af33
bf9b915fd6e1e1d1
3ff33b35f25471de
bfdeea789f77effe
bfb3e1bce69f782e
bfd6eb4129fa77c3
bffa1df683b7656e
3ffb323426054b04
bfe248d3fa386feb
bfe7b37cd1b72dd5
bfc5d6194cf74ae1
bfbd7cd53829e3b3
bff1ed6bca74b045
3fe08e95d9c39a89
bf995b611d517785
bff298ed3f22018a
bfd1a408bfbccd95
3fd180f7a39c5ebb
3fe2eb24d68f517e
3fe25bca60cf03c8
3fb0835027236822
3fff40870b8dc56d
bfffb1b7974122a6
bfb8a7841c54fa57
3fe2135dcb7ef51d
3ff5c54eab76c120
bfefe019709ea34b
bfd824b495640269
bffed9c654695513
bfe711ac23028a08
bff2c94c1b51da4a
3fef562e4a99eba2
3ff6ec5e4bc4eb37
bffc92ca873c3faf
bfd439bcb6b32985
bfe93d77d7a10656
bff36ca0de559239
3ffbb27d3b563bdc
bff0d09bd1791e4b
3fe948d7a231aff3
bfd0a6c71150da72
3fe2ea4ecab2da8c
3ff3880f0352cf64
bff23dabc7a03f90
bff0eca79f59105a
bfffb4682c5d6767
3fd27dcb4d07fd47
3ff2398b0c4848c2
bffcd0ae0bbb0a5f
bff09df8600db3f1
3fd23f3068772f1d
bff737bc2c58be2a
bfe6013102b3b392
bfd41ac302d2f1d7
bff585650b4eb0e3
3fac002f7bcf0717
3fed8f7c5b8ee93d
3fe0e0ba442611ba
3ff62f2dd72babbd
3ffed6a57f50a727
bff94bd7fbf41033
bff29cb8bee40e40
3fd7ff8611890969
bfe51f1bfc009c77
3ff17907029a4169
3fee02ed7c28d79e
3fe1c22d2854f873
3fdd882031b79777
3fffd1a1b656879e
3fc743ad25b4cadd
3ff8fb4c1079c0ee
3ffe699836883548
3ff84197c6be1df0
3fdc11c92211546f
bfc4fefd8538c823
bffca1319c26b213
bff2da20e2d1f7de
3ff3fecd364f4404
bffc598f5aaeb74d
bfdfd8f678ea9acb
3fdab79f27e03d40
3fd501a6c4ca10ff
bfd1809e7e251977
bffec3f4a40bebd7
3fea4a0afb9fdd6e
bfd8a6678adb4e8b
3fe00111735204d1
3fdcc359d57fea16
bfad3c40a30b08e9
bff4513db23ffbfc
bff151f1cfc7bc61
3ffc451a1110e78d
bffe3652ea384a70
3ffaa5bdeca8980d
3fc5bb53d1f87cff
bff77492c7375a8e
3ff812f37b6810f0
3ffdf72810731367
3ff18157f9114fbd
bff40470f8ffdd1b
3ff09dc146d7ee55
3fe2387c54456fcc
3fb4852de5231dd1
bfe82781d2d8a236
3fff82cc16af81b1
3ff17493c76abdbc
3fbe276482a75356
bfd755dd4d0d0ec7
3ff03ee91bccf2f6
bfe7ba3bc41df520
3ff2d9809f839b1c
bff4cba23e5a0dd3
bfe57435f4e09281
bff4d40648977d42
3feee028ec3a79ba
3ff932e9ed3a60a0
bffaacaef4384811
3fdca7785316132c
3feb6690184c3525
bf960e01e809ca1b
3ff5b38fe6c41532
3ffcf824308e9dd9
3fdd2f50bea6f18d
bff0586a6972b2e2
bfeb1efcd4cc2a53
bff83becc359889e
3fafc870018123cc
bffec23ef9b900b2
3f986f513acb351d
bfe865eb42f8221e
3fd41f00f4f1f889
3ffa6219bcbf5023
bff79ea843f73ec3
bff279883d582821
bff8b8e53d582117
3fe029cf38b19f0d
bfe9b59242a8385f
bffac0f1a9e3b56e
3ffe3075215b891f
bfe17356e1f05dd7
3fd14ecbda5fadf1
3fefbbbf0dda8062
3fec0a998f79cb91
3fed5cf5ac6dc7b0
3fcf47400fcf5a6d
3fe3926c5be1b966
bffb3a85cb0d383f
bfe4cdcd5fdbc2d7
bff9f11128ab88ad
3fdad4d0c238317d
bfdb029bc185a8b5
3fe91b20854b09b7
3ff67506e9b02b3f
3ff1ab1ca6c72ef5
bfd189f060b830a2
bfeb6de5e91dcc5f
bffac1fec49d63ad
3ff2cd18c5f8ca16
3ff52aa1131c36e1
3fe547aae8e024ac
3fea022bf6e9c450
3ff8f1c080918a96
3ff5e2afb6990c53
3ffe481930f9d5c1
bff3bfd7f6ab0aee
bff73a40a19cb317
3fb5ba6257062280
3fe0cec65187cb5c
3ff1514e8c79306a
3ffcdbe215fae3ca
3ffc40660162a92b
3ffb367b38d4792f
bfed304264b14fbd
3febfb14645393a2
3fff118722a27c16
bfe2604b1aca030b
3ff2aa6e9c615dca
bf9d220226796123
bfe02fcc0ddddb19
3fcac7709a4a9241
bff3e58501f161ae
bffd40af3c774966
bffa5ff64e04ca2c
3ff5120adf283467
bfca5f37404b118d
bfa660753525237d
3ff45e8622f6074c
3fc65986ef7a1a2d
bfbbb6d2a2ef1da9
3ff516cfa7804189
bff24bd10bb91dff
bfeeaf60cedc44d2
3ffe8cfa353accfb
bfd947343f719779
3ff746769862f118
bff985ab10e0e30b
3fdd92cbf4d817f5
3feac0612af786a4
bfdb8f533b34142c
3ffa41948518b4bc
bfe636ae2f53e382
3fff27cc37612e4f
3ff674a4dc45186c
bfe6d91323916228
bf8d71e4f9e75af2
bfed6ebe91c2563e
3ffdfe095e0bb50e
bff0e56cb8c161ea
bff6c9d32064e1dd
3ff090c5ef03a46b
3ff26248f2931f6f
3feaf1a9af35be55
bfd5999ff24e9dac
bff1a5cc3554d4aa
bfd9d4042b273815
bffa39e5b4190d13
3fd70c2d5dba6800
bfa34a1ed1652896
bff7a56d7d52056d
bff59ac5e2fe9fe5
3fd78feca0f16e84
3ffc0ce2cfc871a9
bfe475de706b41da
3fd9877a9b5c2ae0
bff1e42ece6bd11b
bfdafe023bf74efd
3ff38925315ad54f
3fff49223d3ad822
bff5acd748d58443
3ff8f2583f72d9be
bfe312bbbe66b0a5
bfecdc3f3ae3821b
3fc0933dc2ce6944
3fe9f39d04df6a4e
bff4af184ab76fbf
3ff0a7f672813aab
bffa8ea7044d4d21
3fe1c5e7b9a01db2
3fcb0a6e6e38ef7e
3fd16bf800592358
3fba7a7985fc2f7e
3fdd346ea4d14b9a
bffa0b342227642a
3fd86fefb1f2541f
bffdbe529f490403
bffedb5c0484bd17
bff022944e989511
bfe14ebe36021e2d
3fed9eaa2cc3df63
bff841900a3f7cb4
3ffc096e01a466c5
bffadc1fa6ca1af7
3ff5ec182f7376a5
3fd6f49f3f59556d
bff1871d78d7d906
3fd63d68118f8ce1
3ff35ee21ffad0f5
3fdcde1fcd38eef9
3fd59d25c65f2214
bff87ff6fd4bce6d
3ffd61f61846a020
3ff62dcf8fa86b16
3ff7b8284f999a47
3fecd697711293e1
bfd57368f9bf4f9b
3ff36e8fbff25c60
bfc1ba388f47aee9
3fe98ca0ffc67c91
bff964e85a519000
bf99d93252ad69de
3fff8acbd6ac5504
bff6f7297bba9f26
bff9d8ba1a437cec
bff1e2f74111b370
3fcba1ac31b7423c
bff2d272c3342f89
3fe5b1345c5782e2
bffffccce295d3bf
bff5e2ab98c9d62f
3ff8f1d7b05d4dcd
3ff20188a8e9e181
bfd4808a75c952cf
bfe93d2d623bffba
bfe430f6f54c3296
bfd83889b2354c75
3ff9a89c70dfc1c0
3fffd2e23073f2a9
3fde27a280fee717
bffe89ce8571a4d6
bfe0658ea2522076
3feacd73c351489c
bfea4a8c79b0c40c
bfbcddb6b10755cf
bfbd3b8ceb610f22
bffa9faae76ea428
bfdf0f7cf6982ebd
3f9217c59ea5db03
bfecab1027693d80
bfff24444ad178e7
3ffea75f809f5c3b
bfdb115e6b3e6328
3ff0523e0c45ef67
bff5422b4a3b761f
3ff97572214bb8f8
3fd019c1a01da17e
bff134705a41f806
bfe473918c7d2fb5
bff0eda3ecdb2a69
bff511f5f20b7aa8
bff80984242d6d1b
bff0499ed9f139bb
bff2b0b9d41cb1f1
bfed2d17f9ba9c51
bff49c00ed9aa656
3ff22e4e53f9a830
3ffdc91f7dbb0ba5
3fe3c4616272513d
bfeccc5050833e2d
3ff3471c85d086e8
bff0623bad139922
3fff9d3120ee1dbc
3fdf5012cd1d6ad1
3fee429d7bddfd1a
bffe81e0f6e03e2a
3ffbea830e6da43e
bfe4e54ad78d9849
bff2360827062b98
3ffb4f90d65fadf9
3fed400316fd2b65
bffa299e96a29dee
bfff631750bb2f3e
3faa625a66f2f199
3fc0334e3ec79b2a
3ff23600a64d352a
3fae70223cc5ae9f
3fe1f951839b7337
bff1f772a2aa8f7c
bff1cefb3d3719e8
bff500f94b654a49
3ff078740e715256
bff4f7971fd8802e
bffc55a52cf29b1b
3ffc1686c399e83e
3fe8d2b65e406106
bff115cde247061f
bff205ca1111ef38
3fef3c45ca3a4d9a
3fd25ee4084ea63e
bff657d0c46025fa
3ff7ec024238c2e6
3ff75abda231c2c2
3feef00887fd225b
bff0a02684101173
3fffc4f693d0a46c
bfee1dec268ae6f5
bfc1b1a0fe1c1a98
3ff46917786570ef
bff1aafcd2b5e11d
bfe070d96c3a8b1e
bff6f93ad7e32719
bfe45d248b3b131b
bffafe5a12e974f1
3ffc9077b72a72f1
bff703b71bff9c1c
3fba48d88855ffc7
3fead98a2b0371e1
bfa82f023408976e
3fdc622769c4f22e
3ff402424aae7637
bfd9a6f0de1993cd
bffc7bb39c32cc68
bffe7551d9763a4a
3fe5e3e3aa297237
bfe43da8f0677bda
bfface2d46e855a9
bfe51380f44c2854
bffd1ecf7452493f
3feb6a6d7902ddd4
3fd6f24c03b47296
3fc543ca63236b18
3ff6159b86ddc900
bff11fd7bb469093
bfe6520b9cd6c267
3ff8bfaf116eb42b
bfed030cfa7e863f
3ffd7797c1f3f3d3
3fe4782494953530
3fd51ae71cfd679b
3feec672e84c4065
bff3e1408526194d
3fce6fee99c9ba45
3ffd6ef521ee1c78
bffde8a1032940c4
3fd7b8f46fa7c13a
3ff2d7f3559c3bad
bff7f4de76afce5e
3ff7aa08f390ee64
bff706fec53144ab
bfe161f3d94be55b
bfef245ac1c14387
3fea5188958bac4e
3fd7981076dcd637
3fd753dfaadbc5f1
3fe21b9431a7109d
bffb8621b5f3ef35
bfed9b34fd799c85
bff16da49d416e4a
bfb0187861bf972a
bff4018d80b44476
3ff9ae48ea41759b
3ffb0b3d7d8c0838
bff12b3b940cf5e5
3ff085bda2526b02
bff7b3645ea857eb
3fe64361ae9db818
3ffbf9ec6453f5f0
3ff0785e2d7b5124
bfedb2a0efc36b61
bfd5edc43fed68d2
3f8a488afab8a7ac
bfb04318d648bb4f
3fd922543ddbb3b3
bff429bb7ea0a282
3ff73c4e5870b9db
bff16a93b4feb185
3fe08279fbe0d6d7
bfe8528c0bc303f1
3fedc5df2a125363
3fd23ecbe6d69516
bff79749be30f066
bfe8f3230d32bdfa
bffcab8ef9c34587
bff36a061a5301a8
3ff5cc956cc6fa51
3ff25e5641055786
3ffc6ef53374cfe9
3ffd7e254e3d8ec0
3fe128b091e2dc79
3ff1c225e074ad9f
bffd76c57ab8a9e6
bfef9051125bf785
bff0d84ebb2568d6
3ff225a84cb0daf6
3fffd06195792ced
bfd1b118746c7ad6
bfee0def91ee10c1
bffd5f11b60b9ad2
bff418b023ecedd0
3fd108d42a7ee36b
bfff55a109eeade6
3ff067660a675579
bffd6bf3bfc5b8ca
bff3778b17e8cdb4
bfeddbe2636f2667
bff1ec0904cba0a2
3ff9d14ff290c9cd
3ff552a795d310ab
bffa655b5fcaed6c
3fd6159a5012c2e5
3fd66eb9cf727140
bff4564ae9da9b35
3fb8941ca0714606
3fa077f43a121d73
3fe81b294b0a67cd
3ffb10ba0e14fba6
bff67dac1924956e
bff3d6984c673915
bff652303989dfca
3ffe4df238b6d0e0
bff24704712fee55
bfd018276d62e7b0
3ffdb7040118948b
bfeed976003fe441
3fb660c7ad5c7a27
3ff260dd09e92c56
bfde8569936b8cb1
3fefbe481f76fd5b
bffe39aaa39767d0
3ff5564c8287d87a
bfd19bc747b304e4
3fdbbdebd76452c4
3ffead2bae6b5334
3fee0bc5dfab138f
3fdc6b50e1d4b748
3fb792556ee16276
3fe6cf55f9b62667
bfe4f0668c3f3059
bfc214fc3d7adf15
3fd28cda28534a5f
bff1f431b133113b
bffdc118f3b02c82
bff4505233e12c9b
3ff7258b3f9ea3bf
3fa93f2b0c13a6f7
bfd4bd3a52b02f09
bff3adba296c0615
3fe7175a66ff24f4
bfe3e084d07e1fd5
3fe33fdcd85471ef
3fe7da71ca306959
bff71579fd787740
3fa36672951896d1
3ffa6de4d71db56d
bffad9c3892fabee
bff178dabdf41b78
bfcb76e57e4cd2a2
bff1c4fad1291144
3ffb874eaff9c94d
3fe07f5ea0e50850
3fc55252a4879708
bfe3aa2ad17b3de4
3fbe2651b817a030
bffaf0785644cb0d
3ff5df176a9101ac
bff040800e66c13a
3ff56c950a4850da
bff45ca96aba0855
bff4fbfb17fcd4c1
3fe2bcba8968fbd9
3ff03240ed28ac97
bff02595dde1fc34
3fc7ad957b378dac
bff0d81260de5b4a
bfe69ff244673630
bfcde0959c01b188
bfe84123e606599b
bffe1094aba6c271
3ffa5ac06de404ee
bfd2d9ee8409880c
3ff8ec8e6fdd2326
bffd1425e9172820
bffcc574acd2853f
bff43c10c7393213
bfe06c4f9d6baffa
3fffd97b82b8a7b5
3fee462ec66d03eb
3fe4d9d260356cda
bff2056c7e39c43c
bfd930b19502917e
3ffea455742866f9
3fe37cf1abca5fc2
3fe76542b1b859ea
3ff5f1b7591dd728
3ff8b0f17ad49d4a
3fc8f2fd511ee696
bfe363ed329070dc
3fdd572ca97ce8ab
bff23d7a4e3f0a45
bffa4b60a02623bc
bfe13c519f5b8ed9
bff0066cb051603a
bfe669df242df2b3
bfe3440b1827b5ae
bff1c724674ab923
bffc1cb46f3f48ca
3f8a7f2b87fe939b
bff77f1fce410a96
bff576bcede83ab5
3ff06526f5dd53e8
3fa28343f6e05446
3fee464abe2cbd1b
bff37da8effceefe
bfded3296eec0b3e
3fd9c66acc398054
bff454baf565c872
bfeb09d2afc50c3d
3ff7f9e5f212bbb1
3ff502f77e2a8e71
3fc332848a37af67
bfe1e0017914da1d
3fea5b38e6e55209
bff774ea0d785eb3
3ff47d9d9ab55b8e
bffbc045b831c733
3ff4b0b1c5e1e3e5
3fd30bf8b988d385
bff4ecf7d9018af1
bff2cd8395288b40
bfe138ad990082d3
bff048d3c2ae9f1d
3ff20048c4f183df
bfbc702581f8f955
3fe36ee1bc3304c3
3ffcc41780daf878
3ff97bafc095a345
3ff0c68fef0580b5
3fdd19c594df0bc2
3ffe0f242b3a8d11
3ff00c7f844b0d68
bfd6e79b117a6bfe
3ffc184888f65d19
bffc9866bbff81b0
bfa555ca490e51d6
3fe432463960e582
bfe86aada8437272
bfc67e1368d7dfc2
3fb1243a693332e0
3fdd65f4ebb1f847
3fe02b49a5805e86
3ff50d0ba9bf2ab2
bfe07f7456ff00d0
bfe926dcb0aaf2b7
3ff9d17cbc0170e9
3fe0899ccc95af99
bffd762f3e7b3374
3fc98cc6e8139c50
bfda1db1421ff134
3fed5a03045f7b90
3fc36127a1f5a8d7
bffe5c72437e630a
3feb2e97bc8f768e
3fe462b95e3020a9
bfb80c305480d037
bff4294fae20c6a8
3ffef285d0cfc2eb
3feee2517043c526
3fd12064c4776dfb
3fdee8a630710d11
bfc3f56846be8a81
3ffbbf9134538fda
bffa10c5ef81faf8
bfe3cbaeb3410c09
3fca0914a59ff255
3fe54faf56eacc0d
bfa88e4bb401c086
3ffc6337452aef8b
bfdadb8e07a68710
3ff1352ef7808d2c
3ffb163c32fbb549
3fd8c399c7ea7aed
3ffc32c246cc45ca
bfe37005781f5e5c
bff62edda1d232ee
3fe5db5f6fd93ab1
bfd3bf2df05d3e5a
3fe20bb329b5ba4c
bffd485a87d1964a
3ff9712bef099c8e
bfedc6b000979a3b
bfea53c47a132ec7
3ffe5a0b10ee1251
3ff22fe50b1e2ef6
bff8ea573e635604
3ffeefc13be7d8d6
bff38560047bfff9
3fc7ff8adab2f1fa
bfd22e5b0f9aa26f
bff4203d25b67be6
3ff94741917078e0
3ff705f6ec94e809
3fd2be7d55aa5c85
3fed5b532d8b9943
3fbe315e98b336a3
3fe23976c5dc5764
bff42acb86a88e28
bffd35e6da20b4bf
3ffb7cf1153d6012
bff56561714d5d6e
bff1482b8332514a
bffcb2173771689d
3fe8549323143305
bfe18dfe5e9b0f78
3fbba9cc17028d72
3ff3b7f7e4aaafe6
bff21410f4aea5f8
3fc23d3a430afb8c
bff207137cfc0e9a
3ffabfdbb5efdfcd
3fe67b7b74073abd
3ffd1bb61575d075
bff2916365be3659
bff32001f8cd0b0b
3ff32017a1aa2372
3fdea34c7fdfd63b
bfdf8e5d3881f56f
3ff0308b65157ea2
bff68a37a7547f29
3feac5e487c9a337
bff413654004d644
bffd15f568582fab
bff8e48705462059
3ff18f2268767763
3fe94f2dd95daf11
bff295fc0e4d7b3b
3ffd07586267f3b1
bfef451cc662a347
3ff7eda1080848ae
3fcb157485c35e1c
3fef16511eefa8db
3fe6b13f4cb58466
bffb199724890d67
3fefb8a9db2b42a7
3ff15382550c9da5
3ffe025dcbd492a0
3fffbf64ca8b86b8
3fe5f2a486c1a05b
bff8c0ebd9c7fceb
3ff5d3c4a3ec3d2e
3fc0d0ace83737a9
bff48e2cdcbae520
bff0e7e860e03a70
bfd9aa9decd5f4ab
bff7fe3992eff373
bfec7e5f5e5b1bf5
bffd0574edc0c334
bffea4691fd66b66
3fe593a7b8d23468
3ffdc78a6090e18b
3fe049a14e553bc7
bff0ffd5bf2320c3
3ffc7f70552c82a4
bfd8425e6492c7be
3faa87b47d8ee94f
bfd5834e9ba0a458
3ff3574833e495f1
bfe0767119c54fb7
bffd325b8bb3940a
bff3e485be12bf5b
3ff27a6bd491201c
3fff98d56c5960c6
3fe6204898f83f55
bffef10bdf1cd316
bfe04d3209f8ecf1
bffb716f07e8247e
bffdcd0fae5e0630
bfe1bf5a8a830ddd
3fe392ac2ec04fb9
bff924af1eef3f3e
bfebe423b2fe7b32
3ff7bf4d7df3bf5f
3ffcd99140902a04
bfdebd9b1423be44
bff72d10f243e65b
bfe81c9031dac522
bff87e6912942078
3ffa6240b174a43a
3ff627c128bfc801
3fa542c498e2d39a
3fffdbddc4ab0868
3fe9e875d7c305f8
3fea3e25a86ecca8
bffd8ee6ffbb212d
bff0f0a4693c7477
3ff8fe2aa0827377
3ff0fff5471ee55b
3ff86dfbad46770f
3fdfa40e9d27ae68
bff564962486f45f
bff85bc68e8f8811
bfe8c083b01ddfb4
bff1f9d964da92bf
bff15a0e8f440b81
3ffc80204158c867
3fabcc93afe9bf3e
3fcc281a980483d7
bff9e0391598faf9
bfe56fc2518f980d
bfeaebaefb3e51ea
bff9486ea1f38232
3ffffa1e7b50d51a
3ff7c870141c9b71
bff6f7f7ea678575
bff74bc0bcd0f640
3fd78784c6f102ac
bffbd05e457fbd35
bfde2a217cc5a091
3ffd05eaa8767a49
bff09f56eb5f9cef
bff645e9f2dfc8b9
3f98beb164d6eaf4
bfc1b7353e2f3cca
bff317a5a7210173
3fd0cba85b3985b8
bffc1ecc99bbbcb0
3fffb28c16d7e2aa
bfbbe115a031a4e7
3ffde4fc706afb23
3fd541ad3a7248a3
3fefde1321d95e27
3ffea51661cedbf5
bfe7c38314be2b49
3fea0c5cdb1be09f
bfd5233b180a1a86
3fbf68d82e85ba5c
3fe1d5d15beb0524
bfdb8e367b1f6d3a
3ffbfd9ace3385c6
3fed0c5554def808
3fe84a4c362ee6d5
bfded1dcf9b8c454
bfb7167864dc5b99
3ff0fdcb691f6861
3fdf179674afc535
3fe45bb6401bebb4
3fecc355d57016fc
3fd10a099c43629b
bfdf829bc62c6c3c
bffeb4c98fdde49c
3ff9bb0e46cfa4a6
3ffd679472f9c80d
bff7dfdf68e6b2c0
bfc43598440fcd1f
3ff88ab3ee650d65
3fdedbe08f5f65cd
bffbdcb3fb715737
bfec65cd642c857b
bfb9a8342b7c8022
bffe74bc1f5ad618
3fd484b4237b9679
bfccce8087db63f9
3faaf7b696c99402
3fca4b51603376f3
3f9373631799a8f3
3f7fae8f5ef8cf88
bfc7be8dccbfe47d
bfe61823674979fc
3fe939f3d7f96efa
3ff7fcd1f9ca6ca5
bffc1143c5c4b385
bfea056c4615cdae
bfd5012f8f46d576
3ffc61e95c821d3c
3fcf1d215a9a6334
3fe1b258223e216c
bfd66db6d70920b0
3fe4017c1fd849a4
bff58e41aaf9ff7b
bfd64ea8af354cf2
bffc53703a6d85c0
3ff243e969e70a02
bff7065b2fab99b2
bfeb3061c283c7ee
3fefd0b465ae576c
bfdf9abae401c5ce
bfe80d4d9557077d
bff30a313ddef1d6
bff05feebfe11b0c
3ff138e7423a8001
bfeec69b8817defa
3ff2deb2c943a7e7
bfff6a374ad5061e
bfde55531d410834
3ff451166011d189
3fda1541304b4f1a
3fef6d273e85a4f4
bfe46f52b8c5dbb2
3fd1698f0a5b3acb
3fec0ac91e4ffcee
3fa143142ee2642c
3fb3ffd6dbdd5ab2
3ff0ae8fc8baf4c9
bfe182ff9ce5cbdc
3ff41ef62b9c006a
bfd5217d2ddecc74
3fe6522372208404
3ff87992fc59b708
3ffff5f4bded7e57
3fe078bbfcc3e305
3fe0d69288af3a70
3fe65f1f562dd0d6
bfe0fee3c49ce466
bfef94ba448ef9d4
bfb9596b5777cbc4
bfcd7ab612c01489
3ff1d2fefa35bcbc
3fd7f3219e1badbc
3fe43d1326e6fa38
bff48ef783a51579
bffe56c808d4e5bf
bff186290dfbee9d
bff72ec9a46c90ef
3fd45c8a266bf564
3fe3871dc7c1f786
3fe26b563b6a099f
3ff441169ac8be6b
bfe4e0ac710341e2
3fef2f1bb27f9de8
bfe833edab8afc2a
3fe0739854137cbc
bff922eedaccb871
3ffaf9cf3f558334
bff3fe9a71a203da
bff425a50de2f9a9
3ff0378d97fa27ec
3ffbc922d356049b
3fd3a60b4557644f
bff7a370e1c106ea
3fd39a57279eef3b
bff11d8ae3e0af94
bfcdd4066885151d
bfc4c4ada7cdcba1
3fd811da05be4da9
bffd3e011b3ea034
bfffc0473909b055
bfd6b5698eabbae4
3fe0e3d9f446f4cc
3ff9d6160311a7ec
bffb2b0df6827e57
bfc42ab663d806c4
3ffbff47095fae91
bfe7b51f5e931f2e
bfbe0137effd05b3
3fed11f386f032fd
bfe2c96fdff8a20e
bffa90f77b31c75f
3ff1f96acd506f5a
bfeada24c46dadd8
3ff07bc5a0420ba6
3feae6e9975583c7
3fef4f910ff47e49
bfc1e9342f7c8d37
3ff20ad27aa832d8
bfe514e1fcaf3c53
bfab850d4fe65885
bfed846eef7a3418
3ffcd8777ed73279
3ff37d59c991f202
bffa400262dab383
3ff8d6abff0894a5
3fed584b637f6d42
bffcfca15df1cc3f
3ff1d34f40471a6d
bfe8658fe7bc167c
bfed526b02849b66
3fe23339e843dfe2
3fdc3d847bcb1ed8
bff717f3a5da22e5
3ffcf6d387cf26a6
3ff23d271a10c198
3ffcfa87c9fef8ed
3fe7a53967d5f5d5
3ff800221b73d5c9
bfb1085e104b60a4
3fda5ba0e5111ebe
3fe0d171d881057d
3ff914de4c4e060b
3fee98f06672cc14
bff82e34ad0a6be3
bfdf36c33b525e6b
bff694b56adeb554
3fb51c31ca8fd7ae
3ffde9fa5b2185fc
3ffb33cec8d351f7
3fe2ee69728b9c1a
3ff304361f9336c5
bfc63f6e6e40af41
3fd4b15353d179a7
bff84a636ff27462
bff2b86c13e2a22b
bfea22a735272a36
bfc5ef6cf6240649
bff929daee8544b7
3fb9fc79a5a76bbd
3ff8d10d291692b2
3ffb9339c2d5e010
3fe428bc00d5346b
3fb5ba86d6dc5073
bff75db16ae77446
bf9b97d0be241f2d
bfff6164cccf270b
3ff4b28a763c4ca7
bffbd52de0c7e855
bfe85abcf9acb762
3fe597b9b600bdd7
3fe1f30fd8757575
bfe14378256cbb2a
3fd85ca61041e79e
bffb566d56afcbe9
3fe9a6b9df5b73fc
bffdcc8b9f84632a
3fd51b5ed98a2b31
3fef1a939f8f0232
3ffda66c63a2db5a
3fe6c258308e4c12
3ff1c8978b9c8771
3ffcd4773f64636d
bfb263c9935b1ccb
bff6cd0bd5f591a8
3ff994b969506eab
3ffab7671434a2d6
bff297b5737f5872
bff21d429b3d1888
bfe84ffb7c0f22a4
bffa7cfc02fd3826
bff372195f35641f
3fe0e9eec2e332d6
bfd8bebeaa288712
3ffaf0e1c927e4c4
3ff2d9530b48ebc1
bff3dd4272760e97
bfee5f8cbeeb15b6
3feaebbd8f08bd85
3ff6b4ab4af1d685
bfe8df9ce21b3488
3fe108b02f9bd940
3ff9a7618a515fde
3feb85cf0028067e
bfe67ce12170bae5
bfe3743616e6c4a6
3fef79a963642f66
3fec2faecf44199f
bfa9cdb345d7d995
3fe3185fce0486a6
bff43cdbc6a54229
bffe5ac7f313a264
bfd16bc5bbefe9ca
bf825e0e20f03d77
bff06ef896f7f7b6
3ffa56cef5ebb484
bffc1e6e2aefe35a
3fe7e60d688d5149
bffff367f180b8b5
bffc50721c61a8ff
3ff23690ae860aca
bfe1d806bee66272
bff6b39199e9bc7b
bfedc91a501aa475
3ffaadbe8171c910
3fe2276cb6090a14
bfdd9d4686b09b99
bfa5f538334a9f3f
bfec37b3de8b7fa3
3fd60e9cf998c69b
3fad6a35219f88aa
bfd1e6a9728430c7
bff77c97c2b96923
bff3de12d83bacd0
3fe42ff3fdf68995
3ffe66fccbe97046
bfe597ce6d630539
3fed2527d48d95ea
bfc549cc70cc58c5
bff267655d7a4a33
bff8578faf08b2f6
3ff313fd924345d1
3fd6808421b3815a
3ffcc251e2b6dceb
3ff5a1f545b05e76
3fda360eee64464b
3ffec81bbb8e739f
bfecb2e2af0c0a7d
3fb84c6236e0c862
bffa3746e11fd186
3fefaddd204cde9c
3ff0f3447e2f1fa5
bfd611879f8928d8
3ff9b2159be72f8a
3ff659814472dafd
bfc68d9e5e5f6730
3fe31a3f141c84af
bff10ec004c9b2ed
bfe80622daeb1e64
3fd52018e838be28
3fe631f9428f666f
3ff071c5de8b9331
3ffcc4bd4cc97a57
bfede4b6c21cc059
bfeae6b78ece758b
3fde6d696a595a62
3ff327a7855e478d
bfed647b5a265c9d
3fc7814d10aeb6ab
bffddeccc1166372
3ffb71be53aa0485
3fd3bdf7ff4d9c8d
bfafe28e24866394
3fd0fd73856ec8f6
bff95a2c9503bb3e
bfe63fa37bcf55ee
bffadc2d986bbeb8
bfc7c5be02e731f3
3fe70cbbabec9801
bfc13056b0736433
bfe3b2d31bf9a682
bff580b1d711d677
3fc79f99a41c1c48
3ff884fa02872531
bffa6f63044e5fd2
bfe4f61536168a46
bfd318b873af3e3f
3ff1d1b565be927e
bff0bdcfc21b2f3e
bfec0e16e98042bf
3fd27973ed3c6d2f
3febead778bfada8
3ffc33a70b1695ac
bffaf91f1476a849
3fc038c5bff08b2f
3ffde0feea3ad227
3feefa385273c983
3ff08d975895609b
bff1b6e493b64995
3ffafd072ef1bed0
3fe7a64b3d4f2d19
bffa2f7678ed41ac
bfccf7673ab1555b
bfddad77d92df522
bfb61cbb0b2b3cd2
3fe9a5b13792713a
3ffc1ce53060cc5b
bff3c38d313e14c6
3fda7a1087bec7ff
3fd58ddf19fa7df3
bffc4943842b61d0
bfc3046657116102
3ff3d9e3b2d8cd79
3fe960dfc57d6cdc
3ff67a94b6ec8ca7
bfccd102c6cf064d
bff5d7c707780e80
3feb43c7ef20a6c6
bfdd01b3a21b9df1
bff260e1d271063e
bfebf912cfc7ad7b
3fe92554d84598ca
bff8f7ea079afc01
3fe33fbb6b4cfaea
bfdcfffd6f0f9a8b
bfeb990b07a5d3f1
3ff8521f0d5aa627
bfef265b51d6dc7a
3fb39d75e2352f05
3fc355119bdabae1
3ffd8150a1e2a14b
3fbd625ed4976aba
3ff1956d4135bbc4
3fefc991b40206cb
3fd10bcc02bd702d
bff8574f6d487e1c
bff1210c6a6f3ef1
3ffc9bd243bed277
bfff0c0932e6b2b7
3fe9243174a5714b
3ff651afe26e95ca
bfa61786690cc43f
bfd026477aacd22c
bffe866c79d9aa46
3fc301e07afdbdd1
bff7f926f17b292a
bffb4df7a9d9e894
3ffe75ae4a7a482c
3feeea2f99c6ef45
3fbc14300cd584d2
3fea288e9b5ec476
3fe22eda4396a6ba
bfe0274927ae661f
bffbc6454d3f3870
bfce3fd1e8411e3a
bff4b3d70debf689
bff113dfe204aa30
3fd506877f2749f7
bfef709d283c0d8f
bff66bd363dd5e95
3fd83687212cfaf4
3ff5dee6f8f701a0
3feef47cd7111668
3fea56291ac0943a
3fea344c5bc987c9
3ff5fe86063f97e8
bfe24c3e8c8096a8
bfc019da97e3fa8c
3fff0bfe380d4780
3fd85d240b675753
3fd639d994a5fd09
3ff2ce49226dba35
3ff2ad2ec5d7ac08
bff9169a7cb9ca5e
3fe73b6e3f31184c
3f9ed35a652de85c
3ff9de8de7371440
bff1f08320feb39d
3fb7b60168a61708
bffbadba7f0edb3b
3ff4080752ea241c
bff6a5a011876a62
3ff07e556251094d
3ff0c641c18b75cb
3ff018febfe0982b
3fe2d22650306096
bfe063379931d9c5
bfef0371325b3ff4
3ff047210cf3d1d3
3ffc4bccb273ba1c
3ffd44b155068029
bff1adb63194393c
bfffbcf1c98f9d68
3fd59b193b3a202d
bfc6c4c52c5a7258
3fe9a138c83f1e1f
3fd5d75a874d4ab7
3fe3eac4b6396322
bffb6c83ba5b01ef
bff181f2438cc257
bfe52014731955c2
3fc41c76ff44635a
bfbf06b0e0121f04
bffcfe50534a8029
bfe5c39ba9aff37f
bfe73ae12c1f42c5
bfd32ab9e4264400
3fb41b191f3a45f3
bffcbb09149f6fe7
3fbb36b92bce8b14
bff99ecd9734485d
bff6e8300cac8aff
3fe48a86f3f73edb
bfec9282bb65e5b8
3ff147fd28c78a4d
bfe75e24f2173ad6
3fd6f39f33a1b382
3fe4b0020565d7a3
3feaeaa5ee16fd12
3ff44367c6063dc4
bffb38cf7de5369b
bfb6c37787346d12
3fe1168013a7dfc0
3fb842ccaaf55a6e
3feaa6b60e4e527e
bfe8e24624ab5c8d
3ff2aece4deb590e
bfebf8075df7343c
3ff6cde1a20d46e1
bffb68d320446a32
3fe60b2003f58f8b
bfea8064d214ed6b
3fe9deea1eced5be
3ff24b9219b58552
3fa23a12dcdeebb6
3fff5b3b21473d07
bff95ab81fd8b9fd
bfefbef8ae90ad21
3ff11edc12802b63
3ffaed13872649bd
3ffd007b3b8d03cc
3ff121ed05c00d1f
3f74f63405998672
bffb3d13c32ff51e
bfe895c036f06486
bff863ee44b59150
3fff54e57ec5a5fd
3fe0a1567b9ba0db
3fe2e040595be22a
3ff3ae523a0447d7
3fdf7407f270d569
3fd3c686f4fa2b40
3ff1893a64b40584
3ff82c6421aca422
bff9e11e62548475
3fd1e3180e82a7b7
3ff0ec42dfb544fd
bfe8b31e62e40409
bffce6755cdd18ca
3ffbef4ac368bd5c
bfefc7cd9beaba9e
3ff090a479e828c0
bfdacd9014901458
3fdd7ff6426be4cb
3ffdf23880dd035f
bfe7eb788e5e1411
3fe7f8b58dccf877
bff8e1354d3e98cb
3ff51e17146217b4
bffb6e469707af68
3fed20e39ba56782
3feedc14ea2628c3
bff8c36bb37a72f0
bfd72b74c14318f4
3fd147c4fa08132f
bfd6deb21326e21e
3fedf15d27012754
3fd7b4b2560da39f
bff4a55022b3df19
3fed511d09822abd
3fd30e0b29347300
bfff6c9e54311f30
bfb66c7a11388c91
3ff777624cdfcf9e
bffd3a5e2ad3442f
bfe63ecbd9f7c8c6
3ffc272fd35b38d8
bfdd52a2e1e86069
3ff7fb249a37d511
3fdd8088011f083f
3ff0e18fe85a07af
3f80948e3738990c
bffbb3fb582d1b65
3fc4e5f6542276b1
bffc1361f26657c6
3fe86b641ccec6af
3ff2c5f793f7f344
3fe43bd36e4480c1
3ff548919122b6fe
bffa4f9f22a9f3d3
bf71ea12baa94f75
3ff7d3b3981a8984
bfd72493483bb242
bff9091de1554a84
bff010b81ff581e0
3f968744f19da822
bff16c9fe68506a1
bfe8e86a0631b35a
bffedbf321cd83f8
3fd07802122801ee
bff38930bfdf00cd
3fe87717d5153dd1
bff8e32f7d515775
bffe755b31a9f9ad
bfe5a04c5a122edb
3ffc97e75346f319
3fd02e1f450eadd3
3fff83a04565d008
bfd44b52325628ea
3fd4945fc70f8207
3fd4f75e1e87577e
bfc01053125b9ac7
3fe8d5f5d7413095
bfe66793c0f7d15a
3ff91b4a2e2679a8
3ff30497d2003f23
3ffbd704af394a8f
bff74226b6356dc3
3fec3d2596e1b0ed
3fe2f9ff64a1b91c
bff3ce8b7073c1e0
bff3eb9e134931c0
3fd8c7bb88c8114e
3fe4e0ab56bc10eb
3ff0ad69388ac1bd
bfb4280b34bed42d
bfe10f439f484f29
3fd4f008b094d2f2
bff795afdc29e51d
3ff4621e8d0e4f14
3ff47650f0b78804
3ff1a058fe261c44
bffc4c7a00c37209
3fce20ed322e24e9
bff26f95fdbe85e2
bffdd459467da50a
3ff4c7198a6921a7
bfd7c90d3270be31
3fd8b0c544242b75
bffc51ab7d9d1c95
bfd5ed9b3765fc93
bfd766cacab40f52
bfff184fc48fe31d
3fe4fb55c42ffc00
3fedb34fe803a4e0
bff92ab4c6431c60
bffe6c2140e64cb9
bffdb8843279cd58
3fcf1acfc2c63aab
bff555faac9b447c
3fe414b74cc86439
3ff584a520f081e2
3fe12260254c5c10
bfe2478a1ef77838
3fe7caa26831a797
3fdea43dca509dd5
bfe0d575480ebfc2
bffb41aebf94db66
bfecf0968baad39c
bff678bcad16f4fe
3ff728cd6cfdc01b
3fe4c0f6067c99cc
bff64fb55bf44ddd
3f523895b38ecf44
bfdbf8d757d5466e
bff2b2defbcd92dc
3ff01993d8b2f087
3fed3c1692c63fa5
3ff7a1e749117d80
bfa93da8e3a88cfb
3ffcbc88c75268b6
bffded6109da2229
3fbafca71e99f830
3ff30e02beeb291a
bfee4a2412176e22
bff4245ac32e954c
3fe691a3420f7eb0
3feb575043b98352
3ffda5862be98a2e
3fdf5c62a6189646
bfe5397264d15c0a
3ff5fc81aac17e0c
bfd706f649563340
3fe8fe6fc23630d2
3fe3ade9a3506e07
bff09384632d795e
bfe8a808a29bf861
3ffcd319ea26a9a2
3fa3871dc55e9064
bf9c783f28e37dcc
3ffc613f088ce41c
3fd4905fccbfd1ff
bff26e92891058e9
3ffe9ac3fad2773a
3ff779b76668c715
3fe1ba9c1692c35a
bfd57dc427187a12
bfe914d369ebfe70
bfb45206105e0716
3feebb09b12654a7
bff3ead92f3cb062
3fe685c4925b2dbb
bff2fb78a9959e6c
3fb813bfc3e34760
3ffc8aa1647aab6c
3ffc4b8a942a2cee
bfff11fa8be6d0b0
bfe6ea5e71f79f70
3ff224de340040f4
bff486b0fbc0a186
bfe3f2c8cd0989bb
bff56c0aec043ff2
bfef58c4f4ffd740
bff6adb6752e3454
bffc0a4a62155c60
bffd10903896e2a1
3fe88aaf456b50d0
3feb8f4b8f7d2e81
3fe1d1989e1256c0
3fdfc330139376bd
bfb5a6cb6e053b28
3fe101389b479868
3fe98b5aa08bec37
3fc472300f079d0b
bff385f052cb0820
bffa576999320a8d
3fe682046afbdd1b
bff1d50f2d6f3ee4
3fe8ac1f666e401f
bfd4dc33875a358f
bff758ff23fbb362
3fea5f435c60bb6a
bffa5687a09e12e4
bff3705e8f92f41a
bff0786ea8d460c6
bff2dbf979a13733
3ff5cded27af5be1
bfef32919ca49c31
3ffbe1ceeb73221a
bfe4fc2758be8f8b
bfb721013d7c8811
3ff61b64cc0e437b
3ff65edeed4602eb
3fc252333b3b2812
3ffa95c652051078
3ff156cb16041bf7
3ff8006cc01b6f22
bfcf5d048401d5f6
bff25f96a5686a8a
bffcffbecc33e22a
3ff2d678ae3c0e25
3fdd1dd8635bce18
3fc3fd5fc8c89f7f
3ff1072a8ad10790
3ff131af356bd28a
3fea30b69f675dc1
3fd80f005ab02f50
3ff31502fdd89f7b
bfe8a223dff8cc6e
3fe8bbb4e3ae9db1
3fff7e80fffdb5e0
3fe28ed377e0dc96
bff69d9efc55b222
3fe2412c21729a85
3ff37bad1aba3408
bf885ab1d6ce7c7c
3fd977a08669ee34
3ff0b7df2dbbfa5f
bfe4cea192b7922a
bf96b83eea220255
3ffeabe5389226ab
3ffb2c9f6e8c1147
bff3252b26d4870e
bfe4899685c55c45
3ffc8f1e7b432bca
bff4613557ee0a83
bffada710c60508d
bfc6e729215f43f3
3ffd3664ecb31e05
bfefce0e001359e1
bfeb537000002b84
3fe1752f0b54644a
3fdba3883597cdeb
bfff6812d0be5f37
bfc764fd6fc227bb
bffc7cb3b3c727a0
bffb41c068c0aa8d
bfffcc718bf1496b
bfd83280424fef03
3fe450f2639158a4
bfe2bae05a1bbff4
3ff8027fba3630c7
bff0425dcf143057
bfcba607f7658522
bff9fe1ed8ad60b7
bff8cdbb7ae817dc
3fe478b7e94c6b72
3fe103c5dc03e3c6
bfe27d55834d1b05
bfe4e3a210f09b8c
3ffebbd6e68103e5
bfd2320b3e9824a1
3ff424621a3cd481
3ff8450d0621a20d
bff7c9b12e477394
3ffb4b105e95b0aa
3ff029277b04e81b
bfe43f76637232ac
bfb8ee10ccd4a303
3ff59bc023d603cd
3ffc1444dd168186
bfdefd360cda4127
bffa529e3b99672c
3ff4395ea7ba6b6a
3fd11e44036139a1
3ff4850dc1a78792
3fec5259cd00c1af
bff35f67d46028b4
3ffa1cf81bdce61e
3ff38b26ad5cb602
bfe3d7247d41054e
bfe22845dcd0120f
bfff7940f27d2cf1
bff27b0f6da8a790
bff2716567fbf010
bffc4719814e5da9
bfc188ef8014bceb
3ff3b2974cd77221
bfd0f654b65b4518
bffe5b2b9a974ed0
bfb460d86c797e26
bfdb8cdf36d9509a
bffa30270ec2049f
bfd01557d204f27e
bff7aba70796bc53
bfde0afd8326e184
bff64a03f5d64ab4
bff0c61e66bc4d77
bf94780bde3462fd
bffe42164c67b9a5
bfeb58f25c516676
3feab773942722fc
3ff3aecd5d27219c
bfff0e65b8c5dca7
3fd5ab4a2b8fa930
3fdc3da8e1cf10bb
3fdbb72a71451b3f
3fdb21ffb9d50ae1
bffccdd10ebd62db
3fdefefe7c5c679f
3ff032d58957849a
bfe57bee320b7a98
3fea0d3f40fd3604
bfedf2117e3cd105
bfb795ca39def0d0
3fc0095f09e4cecb
3ffb92a4db6c9e5b
3fd61541731617be
bfe557f343e68715
3ff74429d246e341
3ffdfa4e4ae2257e
3facd583f31300e4
bffd38cf457f58d6
3ff48b954b277543
bfe343712dc56300
bff6d140b142bc2c
bfdcf9278b74fb63
bff385a74e7dd28a
bff54f7230720bc5
3ff678548857fee5
bff6197b5c04441d
3fe8ea5a2aab0e62
3fe9568264366007
3ffc8d070ef09024
bff642ad7c4c4e84
3fe83535fa7387cf
3ff7db1241d25b6d
bff65f8cf73d56e7
bfeddb593bb69e9e
3ff5c1a451d1aac9
3ff66d6618050cfc
bfde1fd60ab795a7
bfcb5e946ca3d025
bfe600580f567bca
bfd383bce4b2bf95
bff4a629669a6015
3ff034406421591e
bff5a59fd6731e49
3ff61e6f1b798499
3ff2dcfc967e063c
bff0350be1d5d30a
3fe259ac54cebb3f
bff2afd5955f3c3d
3fed61d6f7e786cb
bffcb9cc6c8996b7
bff7663c60145f1e
3ffee81d427f2536
3feab24419b40904
3fe8f2d7996e023f
3ff7e5533c04ad38
bff16ec5c13e01df
3ff5567ec88e4c0c
3fff588979e015d6
3ffa7975c23ef630
bfe9bb82b93b9bcd
3ff4b2285244783c
bff9e5fff71a864e
bf7f1676e2da8348
bff835d65cb38598
bf95580f57f389fa
bfff29cf3ae410eb
bfe79a42f3da2945
bff1d28d429c9164
bfee82b4dbd741eb
3ffd656b7b2a251f
bfed7d61bce0f5ad
bff16f293e05a836
bff5188cea50c41e
bff58f2b08821b5a
3ffb28229d633f09
3feeede6346c2b44
3feb65e97dacd08b
bfff275746a78761
3fef2873c46c2753
3ff4b987987f2496
bffb8511956d8ade
bff2a9677a90a2d2
bfe4bc7dd2938fbb
3ff838b03ebb5f79
3fcdc6c1d18c2c6a
3ff80c183473977c
3ffc3251781b1c41
3fe09714ce24f6ea
3fbc65a76f2f238b
bfde72d1aac843d2
bff92ee1c2e921c8
3ff78088cc44ebb6
3ffcc72e88f369e6
3fe2222eddf07e52
3ff9b72e01e58fc7
3ffc7c93188512fe
bfdbbad105ba3968
bff3d7eb35b00fe6
bfb65012d10ce0f7
bfb7bc27026ab828
bffeb0803526e595
3ff6970316e76301
bfe94e61781baf7b
3fc55912dff05320
3fd922e06895647b
3fbf65556076df5d
bff2d2d32d688d60
3ffe4b3d8479ef69
3fec407433cff6ba
bff1bf20492963a0
bffdccf1c5b25c3c
3ff704ec72ea6c05
bfffdb46d224d6b8
3fe83c06d8c7e82f
3fd6bac03a2a9510
3ff6cb980b63c863
3fcaa14ddb9f02d4
3fe15da84b6c5414
3fb599489b9e4411
bfec445f54dca074
bff5f10b86cbcc32
3fe5218b440fefc7
3ff2fc446fa0c4f6
3ff3a6c7bca65102
bff3f9bfa4bdd952
3fb2a8c34e2ced1c
3ff4739c1bb96d4f
3ff9af7fa03b3b6d
bfeab9298db68b59
3ff49d8227f9058c
bfefb656d42baacc
bfdf44178a3a48de
3ff2d5b0c809e2d6
bfffb4f11156f913
3ff4b217f2091f59
bfebfe9fbfc8d713
3ffc31f719a2c9fa
3ff6f78199fd8652
bffbe6ced64b118e
3fb4a3e8964f61dc
bfd0ffef126787d5
3ff2132d0b9a6820
bff9f0c315bb77b7
bfe611cdc9959c27
3fb9bbcd55d00601
bfd80b41daf718d1
3ff22d9eb31088e3
3feaf9fe6a31487b
bfef0a3dd2f9ee9a
3fefaad631e478bb
3fe3c13a53dbeef6
bff6093bccdec6df
bffb283546accabe
3fc7ef9955630bdd
3fe1fd5b82218c63
3fb6b92970751f2d
bfe8462b9081f91e
3fcd2ae0dc86883e
3ff3c086b5f1447d
bff8ec8873032534
bff7a68c8145bb54
3ff79d7f8d1ceb88
3feddabfefb02298
bff7a0f935e88a9a
bfd606cac3ce6231
bfd278900bd10dcb
3fee64d39d654bb9
3fd1ccd0fc2a3543
3ff0c20c48e37e64
3ff3ce35a5e4d1cb
3ff39176c6e39d6e
bfb80d702845db9b
3ff72e2e119a4e43
3ff5fd1db46b0661
3fd5588b3f23a786
3fef65f5ca98c349
bfd43c7c7c229693
bfd88b81371b1063
3f81534f5152a9a4
3ffae20e78281dba
bfb3d66c23d466b7
bfec8ffe9eb9b089
3ff0efe0daccde8a
3fe72cafdd15b719
3ff7259954ace4e7
bfd30019c629d266
bffc71568e737f0d
bfdb7655cfc8c7c2
bff65cca68686c46
3ffca4807445b0f3
bffb6aa2f34aa55f
bff96f4549184615
3ff31ef08398b1f5
3ff1c8b7aaf171af
bfd95ab5d3356c1b
3fee5d7d34154524
bfc99627d749f5d6
bff89d52dce32ae8
3ff5227b6d05bb21
3febe7fc86497837
3ffd6832ecaf28a6
bff68522346dafc2
3fd702316c00dbfc
bfe0793a22104550
bfe0e572f042fe69
3fe0765b8f30a04f
3ff0b58862a3379a
3fea42d43865ba97
3fb5ce3cfdca689d
3ff247a515286f6a
3fe7f9d8c5969491
bff4657b522993aa
bfeee2e01b29f97f
bffd7251931a9699
3ffccc94af6e2cbf
bfc56e78015d726b
bfc4ed9fbb1bfa3e
bff1f5a82129445a
bff7fcf6236a3fd4
bfe93327860e8fd9
3f9c0d2a60f0e6c8
3fb9e396d63d0c05
3fe39797cf6d3b46
bff6e135accc3e34
bfc69596465ff801
bfc1e340bde0d5ad
3fcdf4c4c25d8a53
3fd23b9f7dc72f0e
bf8d50bdb95a371f
bffad3f47a792879
3ff8b98dfedbf080
bfeb5d7383a503c7
3fe6659dc55e0d3f
3feede8eb17dcbb6
bfda0846638abe6a
bffb362d7843d9ff
bfc9542a9db1fcba
bfe2bdf478a7c48e
3ff0c42ae40f8eb4
3ffe73742644d9c1
3fec2081a90a68aa
3feb3341a4f37dc2
3ff85f23bed638a8
bfd8206a2388b70d
3fb853ddc4bb1190
3fef97198877adf4
3fed4bcc3f3094ce
3fe9ab859e42d56a
bfee6a12f811f5d9
3fd968cf9aadc3ef
bff65ac7c90b9a0b
3ff210450530044c
3fbec5207328399f
bffafcdea3969da7
3fff07de4a73615f
bff15f61fe5f24cc
bfde0f4b2d075f20
bfe09a7ca505ad96
bfe5bad9709d2109
bfc493ed1e0a055c
bfeb32de12a20374
3fe0e640610af973
3ff09ecfe020d469
3ffc57e6a2b4111b
3fd59d8b2260a22e
bfbeb52c5c96e9f5
3ffdf065c630fca2
bfd0afaf5de4f7ce
bfe9ff3d47951d0e
bfe99a7b03d752cd
3ff8857d734d3ba1
3fed38867c0a3123
bfcb0a8c24b4cbde
bff71ae0d8c35f32
bf9d5078daa76b81
3fdfa69d77203d6b
bffc0be26deb9bec
bfe9960fdd0ad48d
3ff7daf6a0aee909
bff01d76f04dea20
bfffe8bbebcf4dfa
3ff3bdcfbab3b4ba
bfe2c938ed704adc
3ff8dee29476eec1
3f8ff009462900c3
bfc7bd26b70696b4
bffcf2509eb56a6e
bfdcf65b303e1f38
bff9c5a689a3f07d
3fdb35444372488b
3ff872b1d5e8b1b5
3ff90719ba39c5f0
bff34e687fd8f9b0
3ff68cd5b84a2668
bff952bcf85e0aa5
bfea3b2e5b89ed88
bffad8b72134c486
bffe4fc96d811c0b
bff0e90c04cc3fd6
3fe78a7226a19fd6
bfc6ea241bbcc511
bfe2ca23c9bb70cb
bfdcdb48d3050c67
3fd6f6b84a1c6e84
3fe1c7065b9bc0f6
3fc161f1b33d4030
bff1b894f46140f0
bfeabc4d6db67ebb
bfe0003ecaf9ce12
3ffda983c7ef2126
3feb9138efe0b257
bfdfc80423db2a83
3fc0527635c798bc
3fc0fa93635346bc
bfd33b8e92fce199
bffff52653174dfa
bff8b41f8586d63c
3ff47676cbfde94e
3ffcc43857a8e54b
3fe2bf2929ef0c60
3fb135827dcde32b
bffc4bb0e622ac9d
3ffb3b0c36d3f95c
bfe170e92763858f
3fe7acbc19ef81fc
bff0acfb7dea4dbf
3fd2ad511c151c96
3ff7e7b085b1dc72
3ff4e1c11446fd34
bfeadbbe0710c3c5
3ff8d9d6f76c59de
bffa81c2f19fe0e9
3ffbc40eadbb391b
bff221411c519c08
bfef5f16846339a6
bffb7b78482e22a0
3ffb6377c98234e1
3ff93588d1d64911
3ff211f6f79e1f5d
3fe8c3085c550162
3fc0591b8620055b
bfcbbe4702eababe
bfce1607064a7dee
bfd5582fe2a9411e
3ffa564950f47da6
3f9a7e091439845d
bffc70056676fc50
3fffd1188d661739
bfeb8b67375da761
bff225ea4316561b
bff42c3a4b41a0b8
bfeb7907a329ab7c
3fe9c5258b26d0dc
3fe394f35abace01
3ff20f653ea71d4a
bff78483f1e11119
3fe8ae50fad561d4
3ffa53f1a476610e
3fe7a7abfaff7a08
3ffc3b8ee4d8349b
3fe7382bfcac058a
3fe40fbd5e81d891
3ff0048fdc96785a
bfe433f454877541
bfd683fa5bcf2ec6
3ff202046b7b32eb
bffecf0e18cae0df
bffc34231b138fbb
bfdbdf71fc627365
3ffaa71cd341b71e
bfffc5d75ced1308
bfee1a62c268da07
bffe9c64f4957294
bfe060515e8ab0ff
bfc5353a3c7c6e68
bfe980fd29e4a0d7
bffc91fc2c2c3b8c
3fd621bfe10ebbb4
bfffafdc8b13b771
bff6a5557faadb11
bffdd893d9c8e787
bffe9294ab7f1b5f
3ffe0cb73ae81feb
3fea1bbebccfc404
bff90b0ffdc3cc38
3fe4cc176a4f15f0
3fe8404c642fc425
bff96b989c157b30
bfe58a93b06042a7
3ffb80c30e51e8b6
3fe53903db896788
3ff98909f9e72048
3feffa2846a74fc1
3ff48d6a4eff1ca2
3fd152414511f2c0
bff59dedbf8a0b18
bffec8956d1cba19
bfd4a035c21e3499
bfe19b9c80474aaf
3ffcc732e88656c9
3ff907e79946ed4e
3ffab6023216a28f
3fe6b168d413ebd5
3fe32069e2114836
bfe87c2356001ac8
3fff0c80268a9592
3ff83a79a328ad16
3ff954e756456023
3ffc723c394c9a04
bfdc4143021b2c39
3ffaffb7ea49e8d7
bfc06053436dfd37
3fb47cb38e59a758
bff1031ffd709a72
bff023d31bb0231e
3ff0b5155e0b49a0
bff0dd584ef0bc8d
3ff84c027ac39ec3
3fe1d5a06b7cd3be
3ff2f047d354f1db
bffebee837df153f
3ffe80e56f37febf
bff95ce05e0663ec
bff790d0123ea648
bff80496ef11903f
bffa8f16d97502a7
bff6fcdcc0eba64c
3fe94a63a10a4e55
bfbeec67df380108
bff90b729ac32030
3fee4caf80bca8ee
3ff66684be878165
3fd2dfb7360dc74c
3ff55f98b61b367f
3ff92b6ff13ad89c
bfa49c91286b9f53
3fdbd92bfa58b2e4
3febfebc0b7177ab
bffed0991efe312b
bff5d18a837ec6ef
3ff399c6a2cde426
3ff66011bc5b1bfc
bfd1f022d22a6ab3
bfff90b9bbaa2459
bfd55d277534315f
bff1cdc1e5880a2b
3ffcf89bc2090898
3fdc65987e6f6c72
3ff62c4d73dfb1c6
3fd02827c930492a
3ffa10a5bd62dd60
3ffe4bd040d60846
bffbbc315dd98ad7
bff32b605dde18a3
bff020e13a6b86e1
bfec0439bd62696c
bffba72365943d5b
3fda193ab87b41f4
bfc853fabe0da070
3ff486cab2cab593
3ffee0f711a0bd78
bff808ef74ce9110
bfd7908d73db1c8a
3ffa867b585512e4
3fbbd420ffe0bae2
bfe375345ea5bc94
bfebd87e3125e0aa
3fff7cd2bfa7ce6c
bfcd0065dad723c2
bff6e832afcdc833
bffb46c61fe1bd47
3ff7d5fe852154de
bff221d6fbd27174
bffba1c2d1b5ce58
bfc2ed3747f602cd
bfeac0367bdd05e5
3ff59267a991e936
bfff17f02895c65a
bff5493b9f27b34f
bfa9370d04cefb59
bff8266961c8a416
3fd208c659e7089a
bff8a13d8a37ca18
bfec7ee5cd1f2837
3ff8d44eb55f005e
3fd8f7b300f4bfaa
3fec57b545b0c3e8
3fe5353bee2059c9
3fe78e6403e2f696
bff9d006274befa3
3ffb42210b9d7323
3fde3bce9805adda
3fe4ea9af4d0a55b
bfcebbe215f06dba
3fcbcd6b38d4898b
bf4c020339d05ab6
bfc0ac53c791a9a3
3ff915bad84aacf9
bfc78d8238c132bc
bffe0f83c44393d7
bffea77b2fc3ee64
bffb03a2677fdc02
3fff6437402e89a2
3fef9be7aeccabc1
3fef85e6594e3632
bfef8f3591c6d079
3ff510565abae7eb
bfab4044e65b32a2
bfd33bf3a8972bed
bfd265ce0655f463
bfeade3f18a910db
bffb96ddc75b414a
3ff465c3aed670d7
bfe13d4faa4ec4dd
bfd105f595bf4fbf
bff64ac9a0734632
3fc5d528dd601c69
3fd66d27e47a9a17
bfdd9bdc4b234e07
3ff5b376887cf4d8
3fb09119dc2cf79b
3fb125f640dadc2c
3fbda1050e0d6728
3ff876b3480f23c7
3fed95268bf6985c
bfd25b328b9c53ea
3ffa82278e1b4007
bff429310aaa2ec1
3febdbd6722e10dc
bfdc3e2dc7a7a48e
3fd9ecce83ca92c9
bfe53cf9f2e0072b
3ffa14465f1dc38e
bfdce89af77262bc
3ff486e186286445
3ff3c50ca3319973
3fdf927ea9ae674e
3fe65052aca3f5d0
3ff34597e507fc81
bff500f3be9a1e0c
bff3f1683811c12d
bff138349d6478a1
3ffa8caff47d7f65
bfddbca00fc7ad50
bfed379cd84a5f99
bff0f4992a828f63
bff9dd0a2058b316
3fd57b64db288d3a
bfd1fea5575d5e67
bfc8bb69ff3b71ba
bfe06ee4c1c90f12
bff0dbf1a106cc62
bfe9449af40b144d
bfec55051b5a3a42
bff139217fc38fe6
bf9904c477ef594b
3fea70668f2e4ba9
3ffa06da9d8ed6f6
3fd53c9642e32d35
bffc94cd0130aac6
bff18d3d6b87212d
bff148d14079aee6
3ff37640ad9004fc
3fddab18ea129640
bff8beb4f66c52e2
bff258502191eebd
3fcfd1103b77a375
bfe87115c793cd3e
bfeb361e69805b8f
3ffbcd6926e712d5
bfde34404b6ad159
3ff5e401aee7b030
3f961ccaa8821acd
3fe0576f37c47db2
3febd5f03ad73886
3ff7b47c17175850
bff95a192d27d95a
bfc283b2d1278f1c
bff7a5065f8f9bf8
3fe14e1c8923f174
3ffaa7c519b91900
3ff5ec94cbba7eca
3fd9ad9f59c7d083
bfd4e334366e06bb
bf990b85a66d214f
bff99e1499f77c7a
3ff2a35d68145d9a
3feccf897563ba5d
bfd1fbbf1c31b3e2
3fe8904ab9655d1b
bffe53d43868ad78
3febd69a68746933
3fcc8eb05fe7493c
3ff39ead7ca6fa80
bfb8b4b9edd9bed3
3fe3bc55bde871ee
bff47ce4f3bc5388
bff227c8cea454f1
3ff811ab6d6eb615
bfd425d1cc9abf8d
3ff938b3a65e8f1a
3ffde7aa9a054187
3ffe8a2a81b2b345
3ff73f1231ffd75f
bff875540269afea
3fec1856a36f1a41
bfd9ec282271819f
bfe0278b3277af46
bfe1f2f3bc3c2d67
3fd233ca3e8287f0
bfca1362e0937f8b
3ff399650775b5b8
bffb5a89c9636616
3fe6d56b47c9de75
3fef75ae579e3663
3ff89475199d935f
3fd00a852deddade
bffbde1f424c4622
bfe41a30b7d36a9b
3ffd27bf518386df
bfdeebb7179953d1
3fcf1591c24d5c01
bffcd40911f7597b
bff21a1bb5117a98
3ffb27cfa8e5f3ab
3ff0671027d49ba4
3ff45c4bc9083885
3fd1d73547522cdc
bff70ee7b54d3579
bffc346746fbdf9f
3ffbf9c00975cb22
bff5f5db1184adaf
bffc9d79758b670c
3fcee5099f619611
3ffad47df1983df6
bfdfbeffe841c6ac
bffe521340abe76c
3fc72d70e97d6aec
3fed721e722d84c1
bfcd4e0d0c38006f
3ffb8737af89ba33
bffcaa7379d2fc35
3fbbe77da6442a02
3ffdab34d232553c
bff8635ba02e75d7
bfdaaa1994c9e751
3fdebb0bdda43f38
bfcf6665e53a6f47
bff3bfa7de6da712
bff6671f40a613be
bff71537ef1c6748
bfc97f8a2fc94b50
3fe00f6a463d0d2b
bfece4d71fafe0b2
3fe0bc62f526b000
bffa27298dcd4d0a
bffafff4853b3850
bfc6a8c26f5ef94b
bfc0f7f2d04cfacf
bfea20149b7f6275
3faf38276d7807b6
3fefed7e6f6b2d72
3fd6af546273ab66
3fc9d947395ffec9
3ff0667a79b7b763
bfb41c02c4aa519a
bff1425063e164be
3ff47fd8b07a57b2
3ffec47eee4f5e20
3ff4ea8ed3282768
3fecbe0e8fd6ce3e
bff73f60e8d2c8fa
3fec957539fccc30
3fefa09eccb1e841
3fe7aaae47074d44
bfaada8c5e1225e6
bfe2de0f0bd5ff44
3ff99c673540339a
bffbeface41cc48f
bfff943962f71aba
3fd707875ba01f7e
3fddebb02b9731be
bffa2a34ed1f135d
3fd189eee9847a2b
3ff2c56e471b9004
3ffaaeb7f0e14ad9
3fe762c9107d356a
bff63c30c7f01577
3fdd3e1264306df0
bf9d7c721e204ca2
bffc67f0d4812297
bfd4333a7a2e00d6
bff54c045240a7ff
bff9740b0194b190
3fac86c63ca2bb1b
3ff42b35baa48f3e
3ff2adc66c737255
bff88c5b89ba3334
3ffa93459c426a3b
3fbfaeb088693b46
3fd6ba2baf11636d
bfff481dec72b146
3fe77ffcbd1db87f
bfd97e3afb0a11b8
bfe80e23f7c05597
bfe9e4f2e86b8fa8
bfef57650b2bcafc
3ff2bb2c98d71847
bffff314b6ccdb23
bff134fb191cfa24
bffb622724be045d
bfed433ec3dc57f4
3ff57c9bf32de84d
bfd2b470090a9328
bfc6867134417b58
3ff318bae1696076
bfea2be29dbc455e
bfe177d0797076ff
bff1f5b7401e9c58
bfe06b5a6f766fc6
bff77159c17c17d4
3ffcf072e979e0e4
bffe999a4e125c0c
3ffefed14f1613d5
bffb80cf28cecd5d
bff516816aa6cadc
bfbb82e95e79fa07
bfd608d35b3d9184
3fe07d634592704f
3ff4bc1e584ba82e
3fea8ab313d2eff2
3fe50b9bf4eca436
bfff2ae9320dad14
bfecf92aaa102823
3ffaee59dcb337a1
bfd8454a732c20db
bffb58e09a05aca8
bfe82a25c190acfe
3ffba60e1c20370f
bfd1fdb342bfe566
3fbc8847a17b8a07
3fd6082ba9522991
bffc5e6d8eb9a875
3fcc784542018306
bfea3efb17c33043
3fdf7b8ec70df126
3ff747278b58e777
3ff90cf2504498d4
bfe9b59b8375a0f8
3ff503f4bd3fc400
bff28e6e2785b2da
3ff5dc5b3e7c714f
bfc913747eb1cc29
3fe653c3e588d66f
bffba32b9cb62e83
3fe3dfa62faf2c11
3fdf5a3b26e150af
bfffc153b9f596d5
bf9c8974de6d83ab
bff8ad787c079d13
3ff9ae3291f222f2
bff9d63dfaaf71dc
bfeaa6adf09eaa76
bfc69670e8540cf6
bfe1090889bdd756
3fda19f89351ebcb
3ffa5e61118443c2
3f93646ef9e63f57
3fd5556ceee74543
3fee9c3bd3125b82
bff08450a38d0503
bff1e796483bb0b2
bfeae62744e0f673
bfe55db6419ea6d4
3ff37418bdbac9ec
3fe2dbf0e4b243bc
3fb40102c31cc184
3ff1735bb76ee237
bfa94e73c3f5c77b
3fe539442fbd7093
bfe8cc0ed44a8be6
3feefc09eef5c809
bff4057ec9e96e0c
bff9aefc893edb12
3fd918057c7e0cdd
3ff990026601de30
bff158afcd467fb1
bfc9b0731875a71a
3ffe20655b3ed7b4
3ffc342eefce310e
bff8c4e868eef44b
bff282b66f57bea3
bff638f91d152fff
3fca44d2d313eebc
bff8d5d7ab4939fb
3fe6fc01044265f7
bfe71bbffa268c2e
3ff7fc18190bd3da
3fcd2fe934d0fb9e
bff73399565a68d0
bff9de504d87c8eb
bff5b2a68597266e
3fda8074c17306fa
3ff157ac050c9554
3ffad2b734314a8c
bff560bb6fac73cc
bfbd808f2e937629
3fd5c052a13338bd
3ffca2994864c2d1
bfd319b566ec5ab9
3fe1996b8322c179
bfe55ca4f1391991
bfd9f300f87c182c
3fe6c3b547ebbf12
3ff98909749e90de
3fe69760e0762bd9
bf9eb77f17839a17
bfe917a1d8d98be6
bfd156883f1a6ac8
3fd780b4019c111f
3ffc118358bc3b68
bff03857a9286bab
3ffc1031c1d99a3f
bf8dac7b74fb8cee
3fe19fd223b5a1eb
3fd66bbbb8734c92
bffa4e394e3cf377
3fe63a4eec0d7320
3ff72e12395cd52a
bff015bdafd9bfaf
3fdba375c9b916a8
bff965ad4313d437
bff8cb42b06c666c
3fddb0c22572f81c
bff4a4b5d72e76a8
3ff6ad4cb776d38f
3ff3182ff22f6e77
bfe40bda616c360b
bfd814f70a7accb2
bfceea76bfb65f7d
3ff4d0416b6e3ac0
bff70db379305f72
3ff29a4d2b516559
3fc77bd07827da73
bfd06952e7b75dba
3ff015addbc1ac0a
bffa3c9aab6c3b28
bfe49c342de47ff6
3ff483c3c617bcc6
bfe95f7ec781918c
3fbcd979cb30daf5
3ff2012b34006f05
bff9e5e3df805857
3ff7ce8e8bdae2de
3fd9afe19a6311ca
bfdc659ca508d1e3
3fcbbd80ac476329
bff419da1c186e02
bfdbceb431838d46
3fea23c3370ef44d
bfcdbf0bdf45e753
bfee3be4bbba9156
3ff7dbe3e0984bdb
bfceaa37ab94e5de
3ff30a03e0ae23d6
3ffd3ae0b3b11e53
bff6175afd9adcb7
3ffbecc9b17d7d6f
3fd031defa3fe5f7
3fd93aa3464b2ec3
bfe416e1cf9e4a9f
3ff37c6628c088bc
bfee95587044fea0
3fffe2a958d5051a
bfc5776b38b7379c
3ff05af46a4bf23f
bfe4cba18e0cce4e
3ffe80d1a890ec5d
bff95de358602b45
bfe25232b6f09ac4
3fdd8a634e32080a
3fe0198529f02e09
bfdd0cb2d9f89616
bffb57b2dfadb143
3fddc58c9f5687b8
bff9dae89ac09e01
3fffcbf7b5f2ebba
3ffe9e891c804907
bffb12a6d840adca
bfe5b57f827b0359
bff34c4d9fdfa717
bfdc44190d5a51cd
3fee6be9c990d63a
3ff0441a0feef717
3fea7514fcc82448
bfe4c1a89423fc62
bfeb6e3365b57aba
3ffd1ceec3d6a590
3ffdfa2c621c624a
3fd9253c1fd9bb4c
bfe66423c3da5682
3fc7b4f165fe8c40
3fdafc9e15e28fe8
3ff50f919193941d
bfe26febf7f0a052
bffa4c237e03805a
3ffd2f8147a6393f
bff1f8de57f7ffc8
bfe3133cab90d172
3ffc05cb9c25db40
3fe19f4c97603944
3fd245f83d102b8e
bfee4d2486428f68
bfe7089128e9e436
bfe23982a4daf5f6
3f93e590c4cf2ea3
3ff2fa259c6a6979
3fd61380d9b42ebd
3ff814043b01bb4d
3ff0a432dfe5b0a0
bffd759776481426
3fedbd92e1a88bdc
3fce94cd7065654c
bfef211a8aae991a
bfffbb93c062b834
3fe0c1f07b0d4fac
bff50072331a00f8
bffb8fdaf4b2226b
3fc4870820728ffc
bffb03e6a63157f3
3ff8aa5b218a04c0
3ff3b9c97c052a0a
bff203ae88587965
bffd9ae340951414
3fe396634765281f
bfd7bf432e80f9b1
3fe7033bef4790f7
bffd7b359556a621
bfe4f51b4d853f50
3ffc6ce23674f6ef
bff88e06dc42e92f
3ffe54c14c6a6f44
bfb190991c2e7202
3ff13f574ef81b3b
bff891af433292f7
3fbb3b556b8c9110
bfa0eb2cc58fdde4
3fed2df86fc02a5f
3fe26aa07907cd57
3fe979f88cbab3c3
bfc13a4d72edf0da
bfe13fbdba7ced5e
3fe889fc404a2b80
bff8f7984f7ed1d4
3ff5b9ffc451dab3
bfc2edb7fab34aad
3fe2c280e65b83d7
bffc6d020adb67e9
3fc2b7f519463a6a
bff893e02917d96a
bfdf8c9857b511fa
3ff74e14605134bf
3ffb5cd521597bdb
bfeea594ec964688
3fea819ba3123e6f
3ff98eb5c872405a
bff99a77828caedd
3feea4ca9d2a8ed9
bffec5d31f612b80
3ff72bf26e17e000
bfffe12cd4b64ce4
3fe32bba610ddf39
3fe7f727f6626811
3ff57d05369ca351
3fe85ed4388f63c5
3ffa2b583b8f8a2d
bffe594f061955bb
bffe7562ac41094d
3fe96748a156a6c6
bfe38304a87b8762
bff981397fa89bd0
bfebf4b935a63550
bfef09cfcbdc73c4
bfff811cf9701fb0
bfed8f09158ec5bb
bfe38302e3fb5f78
3ffa300b9b0d4ce7
bffd29928788236b
bff5cea9dc3fac77
3fce73cbaf8ec6e6
bffdfe8b41e4d9c0
bfef297402837e09
3fe50473f6faa035
bff25dcce8753b72
bf74361f4e2fab82
bffaa19ceb6bf17e
3fdf33630a42e802
bfe59cef67299e9d
3fff7872b7d8aa4b
3fdf5687075a5c6a
bffee6d7dc678028
3fe4dcac5610b5aa
bffebe777b3bbe8f
bfd72f6bb436f3ea
bfe11465214bfbfa
3fd8c4301a93586d
3ff8146332881d68
bff4355dd105687f
bff5a794330ed5b4
bfd1435dace1b421
3fd1bb90e6c6e8c1
3fe347564cd2c7e4
bff15de6b4b03617
3fe7803a91c9e273
bfd47223d998b968
3ffe17f221ce6465
bfea7ee7eccf7b94
3fff514a06fa9c34
bfed9b6d53abe6f1
bffe20f43e8114b1
3fffe7d56d48249f
3ff7a0bf9bfd44cf
bfca97da72bd7311
3ffc06b53ba79558
3fb7c6db5a93f933
bfd013802a9d8ed9
3ffb5ef03a26b58a
3ffb2bff8b89d22a
3ffde7e2bbe32102
bfe1a300582621df
3fe353c0649d267a
bff2653958bda74f
bfc456a2a18c3f19
3fdca5048b5b5d64
3fa1f78ee5f72864
3fcba4f33c1be621
bfffcdd54d374aee
3ff5f0efbb693d7d
bfe3c2eea98982ab
3fe87e9a1337a5c5
3ffaeeedd269071c
bfedf0d200beb81e
bfefb72c2b77f9bb
bfe057940c35085d
bfeb2fb267af0482
3fecd00377dc2a3c
bfde4682625bfd55
3fdcbfe8fb053cea
3ff3ae5d123b3adc
3ff3887fe27375fe
bfc28f298b48be29
3fb514286ed00257
3ff063cb4d064333
bff2c18f8cd14493
bfdb9d80e18177eb
3ff2ef9cc0368311
3fdd2faec4c74b62
3fd4e843c909610c
3fb32eacffa32a9b
bfe78dcdc7d10f00
3fcb55bba96d4f61
bff19e6e90721fa1
3ff576042e0e2a12
3ff1ad9d4e40b7f3
3fff261ff9547253
3fdfa709e019017b
bfe69f963b623f07
3fe99a1c388f62cb
bfe08b3ca9a8ce7d
3febf3fe995b4568
3fdb994c611ac42d
3febd04de6c2773d
bfac993a75374087
bfd866c8d89104c3
bfff306b16a7a58f
3fe2e769eb939496
3fe7fbdfd71ee96d
3fe5cae9d66c4b9d
bfd9cc9cfce06639
bfe756814e7410ed
bfe2217d0d6cda9d
3fe097d2d156fbc3
bfd0da0c70c39fcf
3fdae327d445dc2a
3ff28fc9952a8848
3ff061abfbf6b100
bfedb5583e0048f6
3ffcd9e281616933
3fe47ef1ccb44304
bfd88b8e51fc40b7
bff59ef43f9c5bfc
3fdefc2e44e944da
3fc343be08c67859
bff6f7b16c5ca60b
bfdb5fdde7403b83
bfedc85866105374
3fc5a78282cc4869
bfbb2a0042b2cea8
3fbc039fdf12b14f
3fed034cf331521b
3ff25a5aaef28f1e
3fe7c4bbc836733d
bffd6da22b63640c
3fffd4f52b2582f4
bff09f8998ba1f4d
3fdb2ed07594b630
bff3568d96e723d9
3fe7bd37a96b9ddf
3fdd8d2353ce777e
3ffbf5bc3a83eb71
3fffa3e364940281
3feeecb346641f6c
3feba7005e121c4c
3fe2b37e3d72f3a4
3fe0c5a2b335d9c0
bff90331dce3c668
bfe76bfcfe7f9dbd
3ffc111197e301b0
bfec2bf956da8e70
bff0e6ff2f58dc1d
3fff1dc795819c43
3ffdcdfc357b3e7e
3ffc4c5dfbb78ea7
bfdfa231f675deb1
bff0869f1edb353a
3fcd942eb2486700
3ffdbba499103310
3fecda9c0244696e
bfb1bc699b64e0ee
bfecdf876dce9305
3ff4928c99f4a4db
3fe6cd0541a5428b
3ff251c0f3f2cd99
bfd5bf206dfe93a3
bfe831048817dc36
bfebb472fd6d7dea
3fd099650cf4b1d5
3f92b029768c5354
bfe3bfcd4287d543
bfffcf1d940eedcd
3ffe660d0336709e
3fda1edfdd189cbe
3fe238f9af982cd8
bfef3402438c77b3
bffdee500f8897b3
bff827a11d333ecd
3ffeacbd63d15794
3fe1e7a360fe7dc1
3fdaabd4bd918f52
bfe66d65efe2514b
3ff00149a921b919
3ff85349898b9133
3fdc2846ca06c7d1
bfe64b503d6c6636
bff90ace5828cb73
3fd1a0c49f770174
3fe56b8d6812effc
bffb4663d800bdf3
3ff29a2fd1754a9c
bff5f5cffb7ea04d
bfd84ef7373238a5
3ff113823bcc2236
bfef8ccf0ed1da84
3ff3863da4232c98
bfc8923657c920cb
bff448b40e848699
bff47ba7aed64edd
3ff7f84e827b64ea
bffe1098d88c36ad
bff35435850a6dff
bfe4d18664d01b97
3ff4ad881e9168c3
bffd95248af42e16
bffce65f0e73e7e2
3ff9d47cf392cf34
bfec0572ef4e8483
bffe11b587b5027c
bfd71d73c55834e5
bff7bdf034d4e8d6
bff39c516d6cc4c9
3ff9515da1e765c8
bfd1cccc9567fed0
bfecca99546defe2
bfeb78e8b84453d9
bfd5883d16cef98b
3fba81812c8de09b
bfe9f6e732f07947
bffd8567606c262f
3ffeb87b491828ee
bf90d2543847d7a6
3ff92d36489febaf
bfd0c0de2d2264e7
3fffd56b92ff59dc
bfd4987e0e43fe48
bfe7e1c8e1106b8b
3fe77ad7ca6df86f
bfcef241b907f8e3
bffb84c7652d7fd6
3ff779e3e7424769
bff5afd8a28dda2d
3fe864c7fb334a0f
bff31f46a7a80c1d
3fe5bc5b2b093b62
3fe1d7fdef5940b6
3ffcb8b798546ecd
bfdfbaacb75fcdcf
3fda42e60b67a323
3fd559f96fba3d10
bfcb7e9f88dbfd5b
3fe9566bde345552
bff4694e68d46f9b
bfe7e50735dc4061
3fc4d758fe190797
bfa8ca43fc4c3b49
3feed5843d58e96b
3ff96f9e64f3e07d
bfec1e4934e40c56
bffec61149cc9bbc
bff00d737c5d2fcf
bfe151f267a905dd
3ff4ac408df44503
bfa7734794cc661f
bfee8f327b8232e3
bfe97a0d0f1b4b8a
3ff4e589099ef2a9
3ff696ef7dbb6e51
3fd0af97aa0aa76d
3fd381768c55338c
bfdee7f4a9ca5718
bffd24dbb00d89e0
3fec3d8eee4fd0e4
3ff451d3ef63f169
bffe33946d07b37e
bff1c8770de50bb7
3fe3384b22f44ada
bff575790854a688
bfd96c6f53af8d82
3ff36583105cd6c3
bfcb50a1821983eb
bff80e5803b8382c
bfd9e0db0ec4a8ae
3fe31c26c9f8d746
3ff7108f8577755c
bff99a439dc01527
bfc755b4136a2e8e
3fe5bc382a2df1ff
3fffaf3883cb3c8f
bfcc4f8e2fb6114b
3ff5275e4c91547c
bfec07187fd11ef5
3fffb3a2fcc34798
bffb75a830362001
bff1a61581c9f7b1
bfe4816372a44cb5
bfe78ca291012fbe
3fea0f8ebefb39ba
3ff503cda1a2e608
3fd774fdf96ef748
3ff65b3a342052af
bff1974e7423e3a5
3fe734d188ac519c
bff3ac69521d3485
3ff97f13adfcb7e2
3ff9e5b9b7c12b4c
3ff28c7d38ab268d
bff6f57aa6cabc1a
bff6d543ec386c60
3ff7e4314fe4c7e7
3fd28d92956ca293
bfe89923da698e15
3fe7a6c321c51590
3fe98775f1c1b8a3
3ff8d0cf40feda6d
3fe568e5f020e2fc
bffdffb890671245
3fbc625e3e9511cd
bfdda235f718ccee
bff6460d84ad2fa1
bfc9399040834316
bfc12d778bbb482c
3ff3bd4406895c46
3ff641d39f807dc9
3fb792135851f8cc
3fb47ce4a7cf705e
bff95e0972bce443
3ff5cb2df76b6ead
3ffc9a8d8f97662c
bff8aee94e6d58c1
3ff3a7e5d3400ad4
bffe5c7e4b004a45
bff6a27926516bff
3ffeb860ea688568
3fe1bd029f25dea2
3ff7727ccdb6e518
bff31d48d89c4024
bfdf7a5e024c9225
3ff380ccec33a1bf
bfcd4285212bfc5c
bfbde089a119eb0e
bfec9186ec624303
3ff286e85f338565
bfcc82dcd0bc754b
bfeab6c388878472
3fd6228099ef0039
3fc67952769ba7d8
3fe7840bc3d0f0ed
bfee87bd2d9c73fe
3fa84c47d4bf81db
3ffb305511aa74c6
bfd4e1b4739a7eae
bfbfad894ddd3de2
3ff03b79c9c664e1
bfe50315c9b8fc52
bfb1daa2c9f27053
bffd65cacb6b9e43
bfe78367078d7ac0
bfeda738fe7f6e61
bfd496fe6d806a11
bff8e8d7329e1835
3ff9fdb0bee8fee3
bfdc7830f2c27d9a
3ff95d01be35c632
3ffbcff28f3764ad
bff71500826f3e07
bff1635c77c6036b
3ff57d721dbd140f
3ffc523a554c2d1c
3ffbe9148597d358
3fce00ce3de089cd
bfe6a3adb9901a43
3fe97618de063c14
bfede04ef503a7c6
bff112d355446ce3
bff6a6ea15f7eb87
3ff2c4374b292e48
3ff7925f7ab065bd
3ff92c35c6a95240
3f88afeec987616e
3fb73b231d99cd31
3fd08558a1a532f5
3fe853751c01e414
bfff3a2071d5c213
bfda91142a5589a0
3ff2a911bf49201c
3ff3d9d8caf9b14a
bff1cb722ee94370
bff81289450f28aa
bffe766bb579ed45
bfe71881af8ff299
bfeab4df475b0e45
3fe9529dc603295f
bff34d518f61e5a9
bff09cc5081cc84d
3fe42786f8267434
bff6e81f0fa0a852
3ffd8137ea427f0b
3fe9523c999415e3
3ff779dc2888ae90
3fd3d034eda2f5fe
3ffd6dd7c4926a37
3fb56c55563c7bc5
3ff7abb2ac81fab9
3fe1a9d67fcdbdd1
bfc5dc5f331fddf0
3fb0ad05f5d37948
3fe82f013cb4c227
bfea65b857c377d1
3ff458ed54f7f4d9
3ff5fa6fc8b5cb73
3fe83fa3f16b4080
bff4092e30e06e75
3fde00faeef906ee
3ffe797b2f84dda2
bff2f90f05c3ffac
3fe6daa4e973fe69
bff75747e2943614
bfea89f9ee151bc7
bffde19cef768a28
bfecf758c31ec103
3fe1e8c1d2a88d7d
bff4dad24a0f36dc
3ff229b8c0580932
3ffd0bb5c99aab73
bff48cee4cf6133f
3fff84d120084cec
3ffb3b85b95b5fe4
bfe055ca4db1f9d6
bff69916fe28f762
bff5337b08df7e50
bfe03c30056f03e7
3ff6ded973594a29
3ff7fa12f1274d8b
3fe5838cc4ff7eef
bff4ec7a5286c535
bfe2704dc8d63e7c
3ff7c3e6eaf55810
3fe0d73c649d0f9b
bfd8e114f9edf8cd
bffa87f71e61d66f
bff55433cec57d6a
3fdc22ebd8e8c869
3fe56d59f20a13c3
3ffeb691c78f5578
3fe516755f734b33
bffa9f98e5553d6d
3ff0a4710092ae1a
bfe1f4294e5da224
3fe518fdeefc362f
bf9345f4d8316495
bff9753dc0dd85da
3fd6aa7981a771b2
3feff3a9f9db99be
3ffa71a06d10c05a
bfdd5489564d2657
bffbf5076cd13822
3ff3ddac26daaa50
3fbd9b8ce17d3e2f
3fe10bd10a14f796
3fe5906c444e6c7d
bfe3e2458c0871fe
bfda4efe1434cdd6
bfff809a6e559b6a
3ffa82d39e182b56
3ff93820126d40dc
bfda0ddb7a5700ec
bfd15792ed484107
3fd67f12ca4438f3
3ffcec3f13287fb9
bfda62c5832a84f1
3ff25354f4aae009
bfddf7f178ccac4e
3fd9471d655492ea
bfe07f9b8714a447
bfd91c0d676abb56
3fc28c9abe78fa2b
3ffb3bd8671b6c08
3fcc550c97f9942c
bffa6b0ce5f991b7
3fa22d2371065455
bff68f72784115d7
3ff40cbd1effa9fb
bffa2cc7708adfc0
bfbe561507b781d3
3ff0ae30ad1c3739
bfe7a0bc4b20a698
bfea55fb6ba803a8
bffa18564aa66f7a
bfedbe9d336362fb
3fff9f7145fc810f
3fd0c03f148f71ee
bfccb8448204b687
3fe8bb16f0d131fb
bff4c6b97a3d0a37
3fcafe973629d70a
3fff16a96904d8f3
bfeb7bcce5d1c203
bffe8a86ac512cf7
bfeea36bb6e09d6e
3fe8630a60e0ea37
3ff791bda3e9faeb
bfff06e40862594e
3ff4c1639efe673a
3ff93112c318395d
bfe7741c4211a3fe
bfea5a046d6ff8bb
bfd25a949072516d
bfd299039fff7eb7
bff4c14c9866cf6b
3fee159996d05282
bff077528ffcf1be
3fefcf37f33defac
3fec7480fdb3a975
3fb71e955e1027c2
bf721bb43dd3cac7
3ff7c8fb09aad0ea
bfebced86cf91013
3ffc4c0b91704bb9
3ff7d8b94362e92d
bfde8ea1f9e9fe1f
3fffbb6d6eeca236
bff7bcca1a987b01
bfe1ab8e966a21db
bff3a68c31f92ff7
bff58deb278fcfaf
3ffb619fa5a1786e
3fd6bc8cf66c6147
bfe0a068dd7be267
bff52569b14e6d89
bffe7b22b3d6f340
bffd3a9881c156ee
3ff6ad8bff5e4a51
bffd0b84a457dbc0
3ff68797f8ac10dd
3fe48cea75819983
bfed2b1068566295
bfef586aca433690
3ff8810e9502ea86
3ffc11a278303b01
bffe061667b1a1db
3ff1035480c60774
bff38b158cfb3783
3fe2fb9ec2a066a5
bfe80c3caf4034bf
bffb93de41c71e3e
bff4d639745edec8
bfd3fd199e600622
bfdd746973de2f20
3fa1353bc14867ee
bfea4d473c16a9cc
bff6b32f4486e972
3ff09b5838dd545f
3fe6509bb221c3e0
3ffca91dd97be76f
bff61193f657e503
3ffe5c94384cc4df
3fdce3f356b03fe5
bfd424220ed5573d
bfec4b9951da3415
bffe8acb1253853f
3ff2f28c582ca334
3f92c92e26b7dfe3
bfe30ee6d69b7b82
bff1c8b0cb249326
bfeff5ae11b3e931
bffc9712cf9878d7
3ff1f624b1c2048a
3fda44575e9b974b
bffc0bfd8397ee5c
3fea89ffa8990ca7
bf996d34a9670e37
bfa7cf405dcae4d0
3fe01468c0373ebe
bffc28325f4838e9
3fded0cbbd6a898c
3fe60a3d5d8da431
bfe01a702e4b2fc0
bfd1a9c57467dfb6
3ffd49e4a73c19c6
3fc8b57e67285b03
bff9c457de61618a
3fd86ddf2784f75c
3fd00361929917d6
bffedaba5bc8abc1
bff8371535e54b65
3ffef6bfaf599313
3fe345439f3367b5
bfecb6d638c9e498
bff89b36af58a11c
3ff109cfa2580c8a
bfff5bb68fc9f1c4
bfe8f2ff296f548b
bfd369cdc6f4ed79
3ff4d4521f4bc6a6
bfd86f725eeab308
3ff03cb75c5c45db
bff76fcd3c013a41
3fea1866d2811170
3fe0e8ade5fcf88a
bffbaf2ba23d875a
bffb9384f8f04cb7
3fd489aafc69df3a
3fdfd8f0ab03e2d3
bffb1fd2c8c574a8
3fe6947887033e18
bff6a11f7ec0fc14
bff372ef562a771d
3fe0a60d4d9e4d53
bff9fb2b6b6a12c2
3ff8e69839797f19
3ffe4b9efad0a240
3fffcdd9f3fe0c6d
bff959f9acfe1d25
bfeec470adef2386
3fe4b0a8180ea46a
3fe9b4667560990a
bfddaca06d565099
bff119043da95698
3fdc96cc07775e0c
bfff20810e245281
bfc121847c718da7
bfe9be5cc02b5972
3fe7428df6090adf
bfeeee68b9417dce
bff9efdadf1b7a93
3fdee72db8de4475
bfff8ca882a3b52f
3fe5c19c0edbd826
3fd74c18fcc39400
3ff1b0ae63d1b1fd
bfc59fc5a3a39912
3ff1b9f4c063f344
3fda19fc16a16bfb
bfe8087285140541
bffde92c5e1d95b2
3ff9860dc73dca0b
bffeb9cbd1142318
bfaff867361af7c8
3fe20de3ed819d8f
bfdcd7a36714607a
bfe20fa8ca09cf03
bfbe7fa373b103f5
3fe83ef1fe61d09e
bff26fbe948f60e8
bfebdddc72051d99
bfe8c3642a35e8bc
bfe7073f89b73609
3fe4c451157054e9
3fff2de9800b1317
bfc61d11d533a748
3fe455a4debee9f6
3fe22a45a3a28aa5
3ff87765370a892b
bfee045feb8d2f01
bfed8ef2b41e5dcb
bff8c75598814a25
bff00fb38b504e8a
3fe71fe5003a3758
bff5442f091f361d
3ffbb94c63709b3f
3ff1c62256d64dfa
3fde41f89b31b468
bfcc5f6d1f9413f1
bfcdc0615bfd212b
3fef5ced724cf38b
3fe952ac1e3b391e
bffe8c04a9bc1db6
3fed5e174d821ff2
3ff1ce68794a2d14
3ffc18b8782ed47a
3ffc4dfaf4955747
bff10167196f7f6a
3ffb7247d2e79a32
3fbb30e1aa8826f8
3fc3f4772f22a6e3
bffa61225f9a2633
3fecbb483d3bc143
bff8fa8efc17e3a2
bff1556269a13906
3ffb07cb781559aa
bffce5c00d25077f
3ff824b2047b0fa2
3ff9b137103b3b18
bfd32bb5de5956be
bffad97bc0575746
bfe98fc7f08eac50
3ff6e714d51a2934
bfdb87ea7bb322d6
3fc19f962ef7d498
bfee6a9df1c32990
3fe69d367a47ba90
bff2d30d5b94d58e
bfcf754f391971a5
3fffe94cda5f4c84
3ff39f9d1db8137a
3ff72cd9c93d86e7
bff52bae71a7eee3
bfa7ce33d419eb1c
bff6fcf31a42cecc
3ffde5e7b1ae3925
3fdeaa9105e069b6
bffb858fbbc05539
3fba745330bfaa82
3fe0063c17e37985
3ff56bff139571f9
bff4a71d8857ee54
bff3779380960e78
bfd2e1e9faccc9aa
bff5dfd6d4cf5549
bfb7ea0cf3f29226
bffd38f0b00dcbcb
bff15ddcaca5ceca
3ffc8f8c675d560e
3fe67aa1f0259b7f
3ffa84126fa15235
3feeadf81ea96839
bffd3a00b1d4d29e
3ff7ca31cdae73f2
bff6a9ed06b7ccc9
3fc25ce55816f2af
bfe3dcca170a4516
3fff2da5a46f0e4e
3fd42f46fe739ba0
3fe2dd20156a0517
3ffbc978d77c30a7
3fb22648b6980d72
3ff67684ef3315bd
bffab97c9998c9db
bfee90c83fbfe789
3fed49e5fa95df8a
bff22f49ed716fd9
bffda0a9c73cf10f
3fdac12aafc4dfaf
3ff0530be8f9d878
3fc502a16bcf1873
bff6d381cfb4323f
3fec8e4be1e58e35
3fdc1a0c3a38261a
bfd24b7149cea0d7
3ffd1b2da5eadec5
3fede4cc54b95978
bfe35a66aa6d7e3d
bfe44910f21fa473
bffb42d13d5c9326
3ff15709a734a4c2
3f816be01e3d82ed
3ffbce9758641493
bff3b3b88325cbd7
bfbe37e08f8c7abd
3ff51ff98173ee3a
bfe2e77eddc4782d
bff97006e7731c8c
bfe8b4aa34c4b454
bfe2718bf86ea471
3ff298f5d8cc58eb
3ff2da5819304e2e
3fe5e3d7d9a66ca2
3ffb312f65281d1e
bff88eb8afe8096f
bfcba334c84be3f9
3ff2946ef21096b3
bfd75ed9f694b0f3
bfd1aed62efb0528
3fe8493a2474b32b
bfcf296e518eea5a
3ff57de68f6d8d21
bff3a60253bc2d72
bff2f98a09d9b91b
3ff377ed464809f2
3fdb449662fe563d
bff4c12795ce4b39
3ff73cf962da65e5
bf917b24e7cb53f8
bfeb20ddf9051f48
bff09792bc7a0969
3fe8d85aa7681fdc
bff10210b0cd7d9b
bfedf8881acd5bbc
bff2a37d8de06876
bfe82f54473afc24
3fbe3ad5e40221c4
3ff5db84e006ac4a
3ffae4614f988e2b
3ffee7dc16fefa07
3ff383cf7da0c6ca
bff8ddd3be7728e6
bff1bbf93652bd53
3fd74c9f6b6bb475
3ffbe84a57aa5fa6
3ff57e74b8e8f996
3fc49fdbd3e09f9d
3ff64dc6f28afb71
3f85254f9390033c
bfe13a32644cc5bc
bff5748770831e0d
bffbf91b3b2ffc41
3fe4241114ae7248
bffa16adf525a76b
bff8e4e204f9782f
3fffc792fa1b32d9
3fc3f48cc37c9258
3ffdc96695cf36c3
3ff6e74e23dd6b2c
bfe5848b4eaa2f21
bff72a83d29bb2fc
bffb951cfca4f80e
3ff907770fe6b18d
bff03d8bd9d04f9a
3fe238997cdd57a7
3ff8619bda958f67
3ffa16b7d2ff274e
bfe7e885e8f15996
bff19235663a2c8c
3ff819c2b5a8ac40
3fdee3a01b2c7e4c
bfe614219e2b3882
bfb435b15c8c5167
bfe781287f5b0a64
bfd87c5fcac3d380
bfe26377bcc441c0
3ff757e4a38c373f
3ff8176fbdad3622
3fd39e29fd8fa415
bffe50c0f90dc89f
bfe833c47c87da9e
bfedb4257f757534
3ff6feecc8944ffc
bfef577a4f6a2805
bffbb28702e5c27d
bffc56febce0ecf1
3ffc8f6580c0a916
bfffa96c7e086917
bfc3172d0067f697
bff84b1fcc430422
bfee689f481678c8
3fe698f6a3659201
bff5e5fd4278b942
3ff393e3f01ea102
bfff0a50f1feae82
3ffdf1eb1066091c
3ffc5d6e51ecb3d6
3fdaf823b2e62973
3fe5e3a30d7235f2
bfd4edd473fa2e96
bffdc6a09c536110
3fe494e5a8ca7899
3fff3999deceb248
3feb94cb555c5df4
3fc26a861eef51fe
3fbc6c074c2a7b9e
3ff6d7e66456091f
bff70ba9df62a2a0
bfea7762ca67aecc
3fefb4c658e08c83
bff43a1412461e72
3ffd6c262b4e22d8
bff7e9837e323022
3fddb2558dd9e1b6
bffafdf78b5e4234
3ff7c3e35e42ee9a
bfe163621b542d4a
3ff0306770621241
bfe7a228cb641cea
3fff6de78c31f2a1
3fb19897c6e3d5c2
3fe7fb1866a52752
bfe0ba08648b53e9
bfe14334b922728b
bffec7e5a39320c4
bffaffaf8388e686
bfffc6b786571432
3ffa70153e53f84e
bfecc2702f7395c3
3ffb0dc4de1a2e0d
bf796563be002e20
bff99173ecd20054
3ff730faf25e97c8
3feb27738565e5fd
3fe53a0185f4d9aa
bfad6286957e67c7
3fe51532a36e819e
bff39d55ba9fd747
3ff376a780736c91
bfa2d29107804487
bfe22569a955ad4e
bfdcf8cd6c1336fa
3ff2a9e0a571cf78
bfc2846419f17271
bffc679c8d42ae87
bfeb790d303c9b64
bfe405204f5b4585
3ff408f0640bc3d2
3fd9c31421091f8e
3fd9f7bbe7eea8cf
bfbe42e1a7a02df6
bfddecb24f1dfe28
bff7dc2392321b69
3fee5e5877c6c91f
3fd5d224c6c5d54d
3ffd99d7fd4a0465
3ffcb622600e4421
3ff1f09a1f717b5b
bfc960e4a9ee3e4a
bff34cfadaec1140
3fe6f0d541168a20
3fcf379d3f515b63
3ff9b17df4e0f3e1
bff2d1ccb6f60e6a
bff6b6a774934e33
bffa82c1df3fbb04
3fca8c8a5bf2942e
bfe0601be7a0192f
bfc7918b7009d519
bffce1bdc24dbe83
bfd30a0ae5d2cc8e
3ffc3f66ccbc7234
bfcb45a3b6aaa4e5
3ffbbdbdc3bea955
bff10494ab4a1f72
3ff90c99ca504d6c
3ff20a6ac09c3052
3fe8f14ecc2f8362
3ff69e840511f665
bfdecfd96f8da7ce
bfe1a43c2e9049ad
bffdec34b02878de
3fd6c80f2a2d158a
3ffc50b935735c2a
bfe73cef37c53da9
3ff3bd368a7bf2cf
3fdd07091430dc69
3ff5d1558aef9d4b
bfe9aec0ee22c815
bff385bf7ab1757f
bfd9ce18b1c96c2c
3f66bfa7e76f858a
bffcc2049e66a69d
bfef3292ccac1aae
3fe2ab372ae2c128
bfdf6b1c9e3504fd
3ffe38fbb3f46445
bfe84f9bf65bd7a5
3ff1bebae6597b7a
3fa9b89d638ade3d
bfe7224e04e3e049
3ff20a2e37f55bb0
3fbf735bd99f9f3c
3fed2367571ed4d6
3fd72eb952a8bfce
3ffa8e4badd345e2
bfe3978c615dc96d
3ff1e5ba5f69e3e9
3fd83ee7dee768de
bff71e71106eb071
bff5ba3be0aab9b4
bfedb9b335c857cf
3fdf460655972af6
3fe4d9ea01eb1dde
bff124e4c287fd96
3f9a754484958722
bfd2c0ec051cf93b
3ff191e9d9cf733f
bfbc1cb5b129891f
bff0188cde21cd54
3fde33e4e322f379
3ff52e3570984008
bff421fae4bc1f26
3ff7b22c1a4ea6fd
3fd0f1a0382dbd39
bfecc21fecd9c0fc
3fdc0224151db402
3ffd7476557fb1f1
3fe9794521eb8a4f
bfff43a59eadcb43
3fe2c1ac8adcabde
3ff41ad07e5c5d3a
bff107f2af615a3c
3fe9baf279b6ec03
bfde3eeb14308c36
3fbb9b12c2d6b4ed
3ff199ff3cd03e37
bffcf207b6c7aba0
3fc2082cb5b95de3
bffcf891def5e438
3ffcf02040fb4569
3ff21c9cab40600e
3ff8afeff8fa0b18
3fc35a8072919fcc
3ffbcdec62815176
bfb4978b0f70dd81
bfe0e1481a60846d
bfe1789541d22bd9
bff17d05bbb0286d
3ff1f179c47b0803
3fc772e1f8258761
3ffd61bc60061887
bffca19d9aaf52fa
bfdf46d8dbb0ecf4
3fb23625b8743d0c
3ff69168134bf6b6
3ff58d1021b99ccd
bfeaae67b68e42cf
bffff9a1148f9c37
bfd8120ae50d369a
bff4dd58d529f8ca
bffea3ba41510d21
3ff89a50683e34e9
3fb1bdaa5090f8f2
bfe254e602060593
3fc58c226eef6d80
bfc564a9f9db8c9f
bff8acade63b7bc2
bfe929f1523d58c7
3fb5bae0a3b5d0d9
bfed956f1b4b5334
bfffbf837e3e88a2
bffdf02bfbe4b13e
3feaf4f89e125679
3fa7a7bb58be3140
bffb32d769e4afa3
3ff9f8fb19baa7a1
bfe3498490138ed4
bff4255905ab98b9
bff6250fd1638182
3fee4ed7e2f50466
bff7d2fb8298636a
3ff24969933f98db
bff32b5fa61e55a6
bffde303fb53e253
3fdd0023b364f32e
3ffdacda866204ba
3ff7f30bbc686635
bfedffeee5320671
3ff7e5a2c0b8ff98
3ffe5fdf26b960d3
3ff71965429b8cc7
bf991d91a52103b4
3ff7faa8070c2498
3fde29c96913a2f6
bfa4893aeada69e9
3ff70e03b2897fe9
3ff9c6d7bca80c29
3fee35648bfdf183
bfcb1c125cb41ad4
3ff79c1d25ee2bde
bff6ac3e8cc6af41
bfebea02afaa47f9
bfe615cf4e3eafb8
3ff5aaa889e0a939
bfe98799a572e796
bfe6c485ed3ccf17
bffd7669e9f777f3
3ff19097976bf1a1
bff4c872fd52bd5d
3ffc971903f4f229
3fef808a3b562ef1
3fea55532ef951b4
bfe4ca2416fee077
3feeb07e41b7ebab
bfe5a4f7676e115c
bffa9be999144fe3
3fef106bfae40955
3fe187d89f8dccfb
3ff49adef348effd
bff3fbffa733a69d
bff27cbab9543951
3fe878b6a5fb2244
3ff2d677c144d5ed
bfe5cce382e23e56
3ff298eb3df2de09
3fc7abcf80f24a98
3ff6855c3ac52b56
3ff411ebe0c918ff
3ff10e59df1f3977
bff66c36c9adfc53
bff6d1a73631ff62
bff30e4a20f60515
bfe631efff4f1dd2
bff5a7c242459a86
bfd263a34bff04c8
3fce0bd5ac57c235
3fe3ccb15e515897
3ff4784e18087d32
bff673102c4eedcc
bfe25ec395ece0fe
bff6ad08669c4843
bfeb3109fc1614be
3ff1959fb0f07722
3fde4f063c616f35
bfc9253a536d2c44
3ff9cb35d8f8fb09
bffc84e1fa5b19ad
bff2c19e3cfd6c93
3fec958a3d3cc2ee
3fe02b5b41c1f8a3
bfef6d0f3de6d44e
bff9e1876d46d8d2
3fedc6b05ea43c7e
3ff5cd5061c0c23c
3fc2faf5d3e0bbb1
bfe150de62613903
3fe17311fe106985
3fe9d37bbc82f318
bfdc73e077efc2fa
bffc7342deb493b2
3feae1b4aa5d3e10
3fff3100da18548a
3fe3cf66724bf144
3febc1d6231bae51
bff26743e18b7074
bffc36691335d6a4
3fd9dd7f70bf68d6
bffd0c9c863d9091
3fe3790fa4d28eee
3ff58a1351d21bcb
3fe8c4f0af8fd05e
bff4384712ca9d95
3ff37af31e99b0c2
bfa3d35a70fa3f76
3ffd160144e68718
bff491f19b29a151
3fdacc68d53cf3db
bfb5b68adcd487be
3ff1705d038179f0
3fc6bcd2a6c2bc79
bffe7141c91abdf2
3ff30186e2d6a292
3ff147bcef9c1a97
bfc42035616be9bc
bfee961bbdb5f7dc
bff7e0c54a63c47b
bfedbb4f47b6454a
bf9dcdf6ecdbf776
3fec324a868a42d7
bfe9859306074141
3fe78725bbdb1eef
bfe15dd75e84f747
3fee6b757cc54498
bffee415b800c0be
3ff7e25139d36510
3febacfcbc14d591
3ff3f59c68e8c86c
3ff9bb45b11a9d87
bfe05196a948a593
3feaadc0acec70b2
3fe8ba58d56bef33
3fb1953f11f207e2
3fd006e6c05c7648
bfd84404ac9b8d9d
3fe63d92716991d5
3ff1b705561e019a
bff0de58781f18bb
3fd98d59cfea6087
bfd2afff95c27ba2
bfffa78e64a975a0
bffebf1a5303b97b
bfd1ab57877998ca
3fd2c9bbc1e51692
bff8cbaf72654ba7
3ff546f570d8db91
3ff80fad3d4e7842
bf94e2b299da4f30
bffbfd0397dd8473
bff3253405c58b5f
3fe0506e87cb8147
3ff950db49e938b7
3ffad3ef497baa9c
bfc38a158eb3e3d8
3fdf37b7ca57c941
3fa82486bb8b4037
3ffeb43d6ea50357
bfadaba54cde6dab
3ff7128a6f5d8023
3fcf7e131723b156
bfbfe465ca0f2544
bffa19ebcfa8cb98
3fde60a052af8c88
3ffd4cdd9fbcc58d
bfffccbaa49ac944
3ff336e25463989f
bff9841b9cecf8df
3fd3e6864d4d6d41
bfeefdc4def98ce1
3fd25112bd62b1b2
bfe74d3c21ddafaa
3ffd0f1373fb2675
bfee4241781f4016
3ff4a2d4f0618b19
3ff77d835045ae37
bff5d0a1b6247dfc
bff4f8dc0bd278eb
3ff09a7aec2c827b
bff5303e676b4850
3fe415fc29149ddc
3fc2fefedbc1001e
3ff2b697267f2255
bff056cba6ced467
bfc65c8230203c4c
bf9a09c8b4f4368d
bfb9dc76caef7f14
3fecd9a1dfa8e19d
bff3f35c2df16f79
3fd20079e7443516
bff6306a2a1ce63a
3fe31dc4d31faca6
bff70719d5586a77
3ff32544785f5d5e
bffe2e034d415007
bfbffecb9085263c
3ffce9fd4739da7e
bffb8591314266d3
bff8fbb63210d1f9
bff112b9c285d51d
3fdec6fced5c2722
3ff740429729b28f
bffdccdc586a2cc4
3ff22e9beba20091
bf91c329f291847d
3fc1ddabb4664409
3ffb06083ffe39c7
3ffbb04044e8b48b
3ff07d49d1192f0b
3ff275baff73c892
3fe8a24895c75add
bffe4b7d3feb809c
bff67c8f63fcaee3
3ff17c6779a250ea
3ff3379a92682f6b
3fe41dd4f14c7a8f
3fd16242d41224a3
3fd5be51756077bd
3fc35d45eed4e3c8
3fd143709fc724e4
bff936d7b27df3b9
bfeca51e381a4166
3ff377e17abe9ad7
3fd0580dda46089c
3fd7b98c24786586
3ffb5c35202ca6e1
bfcf6fe763a5eec2
bff2b814a41a27ad
3fc5c74e424df820
bfead4917581024d
3ff77a0d21f64549
bff1f0dd1b204615
3ff0b1897e7fae49
bfbbdf7702d61876
bff519026ba1405c
3ff1d5f24544d64d
3fd4326df3e6eee9
bffc5629f81bc5cb
3ff6b68de4a10e07
bff0a504ad99e8d4
3ffd9bea618198d4
bfd8e5d02456a791
3fe7af9c1a28a531
bfbc4cccf693d333
bfc84acb71464f52
3ff5d1ee4f26e564
bfcfbbe5a93e8a50
3ffd452e6128b8f6
bfe7a24f1770b325
3fdb3a428060fbe2
bfc1c64416639318
bff193bf7ff6283a
3fc57c55ba6e0e4c
bfe3811af907f074
3febb6cd5cb3e34f
3ff95d800378dce4
bfe868b68e9d6750
3fff5e1b39704b1c
bfc8450ed19df458
3ff76b5bfce09f8e
bfc4ef0b760c25b0
3ff80b2f7b621470
bfe685e1c633dc56
bffaee9f37f964d0
3fe3f86547b154d4
bfe97f4ef394c6be
bfc4d905bdc416dd
bfe91bf579f93f37
3ff38cdb014820d9
bff98a80ac6cb2f3
bff928016f230ce2
bfe1b4f34a51825c
3fc52b7db6d74706
3fd0891976629956
bfeba566bfc80d7d
3fc7ea8b0a6a3ea4
3fe806cd5e06acde
bff41fde5164c678
bffa5ac23ce845ec
bfe8f9ed3f9bfdb3
3feed966cad57fce
bfe770443dca2ccd
bff251a5672a3080
3fd4f76b4d5caa74
3fcea6c3773087d3
bff0588f263c5b3f
3f9fc0ea0a1b6fd0
bff693a448d0fb12
3fcd9dba91103c48
bff43b83b8a8e6eb
bff82a72fe956fd0
3ff254789ef77341
bffffd68bac1df32
bfaeaf5c3a3a0388
bfdbc63374991a9f
3ff9ece974a1606a
bfd7cdf2a757acb2
bfa51e654201375d
bff9079e00ca8466
bfe40902d5b53695
3ffe316216d4455d
3ffa9d34935b5696
3ff400824795f79e
3ffb8bb4fbfc735b
bff1b2e01b7e8011
3ff208e719ded454
3ff9913d3c558bd8
3ffc41901b58582d
bffe861d9c558898
3ffc7e8abd9ac555
3ff5d2bf4377c785
bff1fee015fd1667
bff383d455e9cc0b
bffe921ccbd9055b
3ff0ab60f9ecae3b
3ff1c663dacc511a
bfdf094466e0bc8b
3fd5deeee1308550
bff26b9ea214e2d4
3ff47c6f6062b697
3ff6caa4c916e9d7
bfe71857aa093fcd
3fa89b7c5ddfd42c
bffaf152d3a2e806
3fe100979a6e1079
bfdcc047602411fe
3ff1de563c779abe
bffa1a1f1f62d659
bffe3a66f5b97370
bfffacacf0528a2e
bff27ef2b43c4e76
bffb06ae080632c5
bfda613795b3c6ff
3fe03782f1046d1a
bffb9a2a02e5676e
3fea28e09e4422d9
3ffd2188fdb23cee
3fc5ed7860c90214
bfc5ac5c71ade56d
bfdf53aa58c9a070
3fed5c3285bca878
bff10e2a7d57df09
3fd5cd12cd4d6788
3ff1970dafe009ac
3fc980a1e2954126
bff323cf8a8bc725
3ffe86fbff949058
3ffceeb06618f70c
bffdf6c45b800385
bfc1eb771c9a3ef0
bfffdfd08ce63fd1
3ffaa7abe4474f4f
bffaed7ebf4c109b
3ff4b50fcd0a7d0d
3ffd578df3e4a610
3ff2959d7bc5ac03
3febde0d0d96ae86
3fc186c00b4b2e28
bfd9bf83bd60f35a
3ff29160910b5bd8
bff092902661b8ac
bffb56a55178bcf3
bfe455525d8a94dc
bfe2a326ab2bcb67
bfe7c4d7dbff2a31
3fd13cb7978d8cf2
3fe56f9757ed224e
3fe4a1efa50a124c
3fffb519f20d0c26
3ff4e65c3f106c6a
bff4988cdac1e0bf
bfeed6753cb876fa
3ffcef180562677c
3ffb9505bbcf5024
3ff65f0d148f77bf
bff29ca48dad68d1
bfe416f7df54919a
bfed331c0e0eeb62
3fdc9b287e384a9a
3febb1e6a3be7678
3fe61d5df8124b27
3feca47fe2599b54
bfff5abbed93a6ad
3ff0cbd5514f7bf1
bffc55a59bd4b82c
3ff9fa0444843d4e
bfdaf9ce257c9631
3ff1e15ffce37405
3ffd92218ed1a7df
3ff8d43aaf2c5845
3ff4ef63f9fadbc7
bfe621dfeeecb6d9
bfef256b1d6177a3
3fcb099352c8df21
3fd1d227773f3945
bfeaf01b860e3b4b
bff164e4bffdd23f
3feeb21db9f49eef
3fe64798e3728a98
bfd212212e9bc3cc
3ffdaecd7a24a0eb
bfff943706f8c6e6
bff30c1182358e29
3fb18e99b0a4fcf8
3feff709809cdca2
3ffe87f379762e86
3febeeb7ec8b5d50
bff82deb133414a1
3fc5aa76fd1525a3
bfc3109505fd3d0d
bfec553560610000
3ff7eccc5d732567
bfed4aefb8a5aac0
3ff1b68ad2a0954e
bfea587f73b4ecf4
3ffabb13a3fac567
bff4de74fdd92e97
3ffa26f2a32bbc9d
3faf0c9a0104e490
3f592b1b4fdab9a7
bffe121cfa272185
bfff57bba048a18e
bff7dddb3103cc98
bfcf0c50540f3c8e
bff0a128613703ce
3ffe54b8c8f0fd5d
bfe2eecf15130e0b
3fe5d66498b9ffb0
bfaf235aa2dc6c2e
bff0d71f3a2115fb
bfb89b32efac67d7
bff2b6a6c4ae69b8
3fe7046360cb225b
bff34ec5769be835
bfe1dd426c21345f
bfc21bb8e68fbd26
3fc16fb3a4cbf28c
bff113c4982dd462
3fca14267096b632
3fecfd320257e924
bfdc7da0266e2753
bfe1a617da696b27
bfe96f539523d230
bff2651e66a01ce4
bffdd559d0afc1b1
bfe897c48e7c8f90
3ff0455c3e380166
bffc557e4ce9f60e
3ff834a10144e09e
3fe0bc3c57f6e085
3fff3e8ec6620a0e
3ff12485c03b44dd
3ff37834fdfc73ac
bfbe71f3a76f19d5
bffcc7551ace4085
3ff795a1b1f59cee
bfc888df93c97f51
bff28ed153cb413f
3ff21e7bf4ab352a
3ffed59b85472e6c
bfef12dc12be2ab1
bfff23b6892507d8
3ff00743186472b0
bfeb03ace6ad2da5
3fc2f5baf3f1d828
bff89d743a42c6fa
3fe7d9b7dff24830
3fd5c8b8bee4210e
bfcf0322c8849d0f
bf4d160ed16572a4
3ff00d3cc46ae9e5
bfd39bde42dffab3
bff909b387291f35
3ff9ef1305bf7375
bfead91e6f62ac6c
bff3f790b123ccb0
bfda5abefdd97285
bff1f4c70f997e9e
3ff97bad3076dfd1
bff0fa9fb75d5b83
3fff3d3caf1bac59
3fe1890836c698fb
3ff00f01977ab934
bfeb3358e229a56b
bfe928f03509e5ef
3ff9fee405a59631
bfc407369ed6a330
bfd23e722f24d7f4
bfff527f5f12b14a
bff37f0d27e14e76
3fdce466b2949c86
3fe0e177e9fd9959
3fda2a71021732f8
bfe18794c3367eed
bfcb1b484181f957
3feb3d3033e9cf27
3ffc120f5be9099a
3f9196bc52afac98
bfe1a48920cbf8ec
3ffa9cc5ee089406
3ff1db5ff3056f8f
bff478d947b20c7b
bffac484c2366392
bff048fb4f0086b3
bff7bc9b6967f215
3ff8e1421316960e
bfccbc3971221a81
bfc38d64630b4127
bfc9d0052a0bfd5d
3fa364214dbe4bc1
3ff4b303daa0a9cb
3ff820be11792ca9
bff5655107fd6938
3fcce5098fabebfc
3ffed50e86edf79b
bfdf8c342ffbaf94
bfdfeffbf3aecd84
3ffd3d4ffbd344d9
bfd0dca16cf0a444
bff326722afef8a6
3ffdc56db3184cef
bfd8ef08cc8d416f
bff4e0380336b9bb
bfec98daa7fae4d4
bffc84ac727fd946
3ff647d7e8226081
3ffa69d06b92b695
3fdab2f48311c173
bfe50458be10d065
bffc3f35a2114427
bfdc2d27807da448
bfef61990b9f55a9
bff7421131b07253
bfd0b470b3cdc41a
bfc3f0dc315d6ada
bfe042950ef6eb2d
3fe01cf6e26e8304
3ff06596fca29650
3ff044f3ac593160
bfd5b1f070d482f0
bfee1115807edfee
bff8e06146f07a8d
bffd6d433aff28bf
bffb9f801914702b
3fe930ec5f0e56d3
3ff65a49b1526d96
bfd450012ef77236
3ffa3abdec2f5cb4
3ff8c64dceb90f2e
bfd7418eaa2cb135
bfcf6e57c4287744
3fc7e10fa7dbd21c
bfd80b3f565f7f09
3ff404d2cdcedd6c
bfeb1c37f58f56c2
3ff4ceef86b09196
3ff003f531c235f5
3fe28a35620925a8
bff478a26f3540f7
bfdc3c3f8156ade3
bffb670fad7dd097
bfd45d03a0ab19cc
bfdc486c270d50e7
bfd94db8def6c3e7
3ff70958e9d37f37
3fe45a4e24944967
3fcbb5e7a4bf5342
bfe6c1ef3f00d08b
bfd95468880ead97
3ff90bd25e5ac247
bffa0e99f3c3894c
bfca1e44ed4787af
3fe5c80af3477242
bfe14f6e277bbca2
3ff4d788afa4d121
bfe9a95b6d33c80a
bff5043a5ef21db1
bfd89da3f9e19ba1
bfffb59459b89495
bff9daf6fb5950cf
3fb456cb16523d6f
3ff183108cc334f7
bfdb6b11db623ea4
bfe34c0eec6e8cb0
3fd16ee2b7b48ee9
3ff75db01eae6e03
3fe07627f252d144
3fcf0441c0798a80
3fffdbc473838181
3fc413a8e3ee3097
3ff75d6d1268bdc0
3fe039a783f6769c
bff59cc9f3e05500
bfff77d3d2c2276b
bff9783d1dffd9b4
3fc4e6e41343ef58
bff09135163dead5
bf9273d2ee72273f
3fd52897a008370c
bfe74bd1fa2c33bb
bff16a3639472cb7
bffecf60302fcdd1
3ffd9779be5b285d
3fd884c36597c224
3fc5886ff32b53b5
bff34a8029cc5e62
3fee091ca04617f0
bff48749458b2b87
bfd9ef49975111ce
bf823866dd253436
bfed0a86c6c47cdc
3ff4dfc00884ef3c
3ff9839043138900
bfe398dd278617be
bfd5389ad706cb02
bff6aee23ba23433
3fa2057db76015ff
3fe31d60a2ce1b6a
bfe0ef370ac1f122
bfff31729e00ff45
bfe9f5d9a160356b
3fc791e0789ee8d2
bfc1fc6cd4f7249e
3ff3482ec0ac95be
3ff84e5d84930853
bfd8224ff152be4a
bfe6661b49e87167
3ffb4c5454b358a6
bff2655987d6d27b
3fc8b87b2d41885e
bfd7fd54ec0b8502
3fd9e9e2a1740286
bfe4f5b53ebb03b3
bffb6cd2c6bf3695
3ffeeea414e397e0
3ff5f6ff0094303c
3ff56ee892cdf749
bfe4cc0d44e68536
3fd87412aabc8d6a
bff43371bee61168
bfe7cfd36b46f683
bffbda3b94659fdf
3ffbdb56f984e39b
bfd1f1e3e160c8d0
3fe7c4623a6f9596
bff32eafdef354b9
3ff18b1df263e01f
3fed7129f95daca2
3ff099155e8a8d12
3ff054858f8762a3
3fff430ebe488880
3ffdec4dc135bac6
bff44e8466ae052a
3fe3977544342de0
3ff8a762a7c8538f
3fe534ba3cfae3ef
3fd6535281c0857d
bfe8d78f1e34b9f9
3ff1aaea613db41f
3ff4445ea30af73b
bff4381f32c6d31c
3fe93b076d84073d
3fca83a5f5a6943a
3ff5d7a35a9f071d
3f95c4ce610761d5
bff11a83636e53c4
bfef0342836ec2ed
3ff4616559e8dcff
bfc095908fcc9991
bfcdd67ed2d051b9
bff316b8d6dead1f
bfca3f09df88b756
bfc5c2efb27fbf40
bfe601daf2e7905c
bffc697bcfe40221
3ff84296e45c8437
bfecff96799ffb2a
bfeb6048618aa83a
3fdf675fece3513f
3fe31d9aaf37bb63
3fffd0713e81ca05
3fdc8c5f146ae489
bfd50e6a1164c6e9
3fdf0069cdc95551
bfefb649246e413c
3fe4b21cbf184a44
3fd982942a51370b
bff2f889f002a9ef
bff0f96c4c765c9f
3ff2b5e2139a9e2b
bff5207c42421136
3fe378aed4aec8b9
bfe89e28ba25c4ee
3fe19ac741fb3a89
3fce3b4b14c5e3de
bfcfabcd3998350d
3fc4a9d9da861316
3fcd15e2d6207c13
bfb5c1215df58f72
3ffb83d234549d65
3ffe1fb9015c729c
bf951e1b0367a6ae
bfd756a1237afbb8
3ff57d2b8ddbfbb6
bff0e9ddcadfdaaa
bfe143ec242e267b
3ff6865306646d66
bff0dea8996fbe1f
3fd07c40a445cabc
bfdf0cdf5801e947
bffc332ef60d0dea
3fd64e6431bc6e78
bff5c0df6148358f
bffa4fe335e52a5f
3fd7da0019a48e4e
bff5dbea547fcdb3
bff40f5c1d1a4d3e
3ff9a316eb259ed8
3ffbd224ed5afb1d
3fcaa83d98e6e3fb
bfe0719343d6f291
3ff94fa9f02bb531
3ffb73a5d3c2fa96
3ff2c269b1b0c4e5
bff1967ff8af8558
bf7e1feace7147ef
3ffcbf6a69c4759c
3fe96584162d1d54
bff5e5511dc5df05
bffe6910d827ea67
bfe782d631ebade8
bfed4e99377eeb7c
bffa62907407f4ff
3feb3207a2604017
3ff0cd3a220f999e
3fe8d858db46d722
3fa956d09879e8b2
3ff9b3492f683e5a
3fcc9a156486658a
3fe7975dfa146c3a
bfd47b747a18d542
3fe0e0d3f199cfc7
3fe51dbad258e031
bff725d1fa31c68d
bff964c1ea3ce4d3
3fc0274f2cbf1d0b
3fd7ae988b706128
bfd56e1e210d4c60
3fef1175bf3150e2
bff071e8a61fc1f4
bff7237350ba435a
bff16578441feec6
bfe4f382662eacbd
3ff40fb9dc80475f
3fe655a4e1352831
3ff7b56245b9596d
3fcfc1a3b08cd1d9
3fdf8717faef237b
bfc130881de1817d
bfdefa5b68a32700
bfeb1995f6d64d85
bffa7b7106fcc298
3feae698d236602a
3ff823de099b648a
3fa1ab6ff7e194f4
bffdbea925e1a719
bff34fb45b18d3e5
bff81c20c32e207d
bff2d691227e0870
bff7b1cf8d95b8d5
bfe6d2d856678667
bfdace6ce6d7a420
bffc6c178dab860c
3fefef6df2b47854
bffbad946a820c86
3fcbf9ddee7a7967
bfeb0e9824b3bff6
3feb6dceca3041be
bfda9828050921ed
bfc30daa60b01580
3fcdb0741ec8ced8
bffc33e068cf2467
3fff8899a7a9668a
3fcd7f84bee30443
3ffe4535eba01734
3ffb1c0255484282
bff7c653ee86a0f6
3ffe607c66b7c3c2
bff0b7f7fea78d58
bfde2f4daae5a19d
3fd03887baedb607
3fece228390aa74b
3ffaac80045443d3
bff6040a82ab9e0e
bfff186d0ee8fb07
3ffc174d07b993f7
3fec9ea9106becc1
bfe3d5513f6487e3
bfefb5fb14b870e6
bfe3280f0ef23585
bff2153c28397bd1
3fce9804e072072c
3fca6fc359791fb7
bfd5609bf8a986af
bfb625c7c20aade8
bfd305ca5d9f5782
bff6db0b7488314a
3fc5b8020e0d7dbb
3fb5d562f13093a3
bff0737e5655ad38
3ff66ee068349196
bffe88b37f1ff3f5
3ff367c4ce58f87a
3fdc644129d26857
bff461f2c8801ad3
3ff7c419486771dd
bff65114bde13993
bfe80682dc01f465
bfe8e52335c38e78
3fc336b51974f94d
3fe063314a24a1e9
bfef5e7390e48c6f
bffa312b08b972f5
3ff74f7cc62d2326
3ff1c80bd1645f6d
3ff5f3594498a2e0
3ffde88de4264be7
3ff906a9cfc65c3a
bfe903107d925c1c
3ffcc08e251765c0
bffa3f847cf9bde0
3ff54d89bad5250b
bfc08478f71c0fdc
3ffe7a411830472d
bfede238303e32d1
3fbd849031701046
bfe497f76960a9af
3ff1f814b99e78ad
bff5d97bdc8abbbf
bff74c25d82897f9
bfe5867907d140bc
bff7c9dc64db716d
bfe290665b2699ec
3ffcf8f3123f805c
3ff46ffa0b2a8635
3fe8cdc597188920
3fd03f40d1990a97
bfe9050680ad8627
bfe6bb0dc03e8420
bffe309de5bebb32
3ff205e18337a8ff
bfeb688701f003c0
bfd6516ae4ecfbe5
3f75f923b53bf1ce
3ffa4b8a35a4982b
bff4091fb1728fc2
3ff5f639d2307952
3fd6abe6197626f6
3fefd447f2faa79f
3fe1f85b249a1dae
3ff9984212860550
bffe4ca2973a1e2f
bff021d58e004165
3fce248f1f016293
3ffb72d7f79f2dc7
bff15c03a7b5968e
bff2a28b4435af79
bffbd346b0e6f0f1
3ff2d9f4003d6e92
3fee3ac272f4b3f3
bfeb506592c39d6e
bffc5476350e717a
3fc32bc6d5092423
3fd3931f275809d4
3ff64621aeb72816
3feb30a941ccb7f2
3fec233ebb9290a2
bfee2e446c0505e0
bfc4f4c844db4daf
3ff0a74eed093877
bffad3087cc71cf9
bff132d56fd1eec4
bfefa0f20ad55d61
bff52906fd71e48d
bf68b4e316d80d71
3fdbb23a5c703ec1
3ff5efe370bf5e2c
bff18f00e0026cd4
bfe7a24b608e0486
3ff1f890a1e0682f
bfafaa01dceac164
bff32051bf8da925
3fe3c6b93f57314d
bff380cfb1be4ed2
bfd4af091302da18
bfd275257aa01ea7
3ff4643fc19b8706
3ff7dfeba6537b78
bff86107fcf71feb
bff06397b11c31ac
3fc0b38c83faa3c0
bff00392e590cbbe
3ffa7fd6e846881e
3ff8ad406fd78b5b
bfff34c6a5f6beb7
bfaf3a00f8403749
bff8e41d6a0ee445
bfe4e6a0715b81a5
3fac0ff572571ede
3ff6550c6437b17f
bff0da0ff7f9664c
bff6425dd3ce23d0
3fff3ce2da6c1738
bffcb52002f51972
bff770108ab60050
3fe46b522e7b1fa0
3ff956f665523298
3fdc2e9663b97b25
3ff1f0cb91eabda8
3ff9fbe0c54d0237
bff367178a579fc9
3ffbb554851d8e30
3fe883e9f1d957d9
3ff8ef25682a6fdc
bff8e2d76c888be6
3fed64288d116ac4
bfedcbbea57d5a93
3ff5d57974433713
bfbfee2a858f33a7
3fdd1750eb7448fe
3feb26d3bf81e1c0
bfeebe4ee4d54bde
3ffdf7726f32c477
3ff930b9fc744d85
3fd4aabf92b9fc6f
bff68ebb724ab451
3ff7f96d72614bc4
3ffc7110c0027754
